{
  "version": "1.0",
  "truncation": null,
  "padding": null,
  "added_tokens": [
    {
      "id": 0,
      "content": "[UNK]",
      "single_word": false,
      "lstrip": false,
      "rstrip": false,
      "normalized": false,
      "special": true
    },
    {
      "id": 1,
      "content": "[PAD]",
      "single_word": false,
      "lstrip": false,
      "rstrip": false,
      "normalized": false,
      "special": true
    },
    {
      "id": 2,
      "content": "[BOS]",
      "single_word": false,
      "lstrip": false,
      "rstrip": false,
      "normalized": false,
      "special": true
    },
    {
      "id": 3,
      "content": "[EOS]",
      "single_word": false,
      "lstrip": false,
      "rstrip": false,
      "normalized": false,
      "special": true
    }
  ],
  "normalizer": {
    "type": "NFKC"
  },
  "pre_tokenizer": {
    "type": "ByteLevel",
    "add_prefix_space": true,
    "trim_offsets": true,
    "use_regex": true
  },
  "post_processor": null,
  "decoder": null,
  "model": {
    "type": "BPE",
    "dropout": null,
    "unk_token": "[UNK]",
    "continuing_subword_prefix": null,
    "end_of_word_suffix": null,
    "fuse_unk": false,
    "byte_fallback": false,
    "ignore_merges": false,
    "vocab": {
      "[UNK]": 0,
      "[PAD]": 1,
      "[BOS]": 2,
      "[EOS]": 3,
      "!": 4,
      "#": 5,
      "$": 6,
      "%": 7,
      "&": 8,
      "'": 9,
      "(": 10,
      ")": 11,
      "*": 12,
      "+": 13,
      ",": 14,
      "-": 15,
      ".": 16,
      "/": 17,
      "0": 18,
      "1": 19,
      "2": 20,
      "3": 21,
      "4": 22,
      "5": 23,
      "6": 24,
      "7": 25,
      "8": 26,
      "9": 27,
      ":": 28,
      ";": 29,
      "=": 30,
      "?": 31,
      "@": 32,
      "A": 33,
      "B": 34,
      "C": 35,
      "D": 36,
      "E": 37,
      "F": 38,
      "G": 39,
      "H": 40,
      "I": 41,
      "J": 42,
      "K": 43,
      "L": 44,
      "M": 45,
      "N": 46,
      "O": 47,
      "P": 48,
      "Q": 49,
      "R": 50,
      "S": 51,
      "T": 52,
      "U": 53,
      "V": 54,
      "W": 55,
      "X": 56,
      "Y": 57,
      "Z": 58,
      "[": 59,
      "\\": 60,
      "]": 61,
      "^": 62,
      "_": 63,
      "`": 64,
      "a": 65,
      "b": 66,
      "c": 67,
      "d": 68,
      "e": 69,
      "f": 70,
      "g": 71,
      "h": 72,
      "i": 73,
      "j": 74,
      "k": 75,
      "l": 76,
      "m": 77,
      "n": 78,
      "o": 79,
      "p": 80,
      "q": 81,
      "r": 82,
      "s": 83,
      "t": 84,
      "u": 85,
      "v": 86,
      "w": 87,
      "x": 88,
      "y": 89,
      "z": 90,
      "{": 91,
      "|": 92,
      "}": 93,
      "~": 94,
      "¡": 95,
      "¯": 96,
      "¿": 97,
      "Â": 98,
      "Ã": 99,
      "Ì": 100,
      "â": 101,
      "ĉ": 102,
      "Ċ": 103,
      "č": 104,
      "Ġ": 105,
      "ģ": 106,
      "Ĥ": 107,
      "Ħ": 108,
      "Ġi": 109,
      "Ġt": 110,
      "Ġa": 111,
      "Ġf": 112,
      "el": 113,
      "in": 114,
      "Ġth": 115,
      "Ġs": 116,
      "Ġw": 117,
      "Ġfe": 118,
      "ing": 119,
      "Ġfeel": 120,
      "čĊ": 121,
      "Ġm": 122,
      "re": 123,
      "Ġb": 124,
      "Ġo": 125,
      "nd": 126,
      "Ġh": 127,
      "er": 128,
      "at": 129,
      "Ġthe": 130,
      "Ġto": 131,
      "ed": 132,
      "ou": 133,
      "Ġl": 134,
      "Ġand": 135,
      "Ġc": 136,
      "en": 137,
      "Ġd": 138,
      "on": 139,
      "Ġp": 140,
      "it": 141,
      "or": 142,
      "an": 143,
      "st": 144,
      "ll": 145,
      "Ġn": 146,
      "Ġbe": 147,
      "Ġg": 148,
      "es": 149,
      "om": 150,
      "Ġof": 151,
      "ve": 152,
      "Ġfeeling": 153,
      "Ġin": 154,
      "ar": 155,
      "Ġmy": 156,
      "Ġthat": 157,
      "is": 158,
      "le": 159,
      "Ġha": 160,
      "ke": 161,
      "Ġe": 162,
      "Ġwh": 163,
      "ut": 164,
      "ot": 165,
      "as": 166,
      "Ġli": 167,
      "ow": 168,
      "Ġit": 169,
      "Ġre": 170,
      "ay": 171,
      "et": 172,
      "ic": 173,
      "Ġu": 174,
      "ver": 175,
      "Ġst": 176,
      "se": 177,
      "al": 178,
      "gh": 179,
      "Ġso": 180,
      "Ġim": 181,
      "Ġy": 182,
      "Ġlike": 183,
      "Ġon": 184,
      "ly": 185,
      "Ġfor": 186,
      "Ġme": 187,
      "ent": 188,
      "ld": 189,
      "id": 190,
      "all": 191,
      "Ġam": 192,
      "ith": 193,
      "im": 194,
      "Ġis": 195,
      "ac": 196,
      "Ġwas": 197,
      "Ġhave": 198,
      "Ġr": 199,
      "ad": 200,
      "Ġwith": 201,
      "Ġbut": 202,
      "Ġj": 203,
      "ion": 204,
      "Ġab": 205,
      "ant": 206,
      "out": 207,
      "Ġthis": 208,
      "Ġnot": 209,
      "Ġyou": 210,
      "Ġan": 211,
      "ust": 212,
      "ally": 213,
      "Ġas": 214,
      "ul": 215,
      "ch": 216,
      "Ġsh": 217,
      "oo": 218,
      "ess": 219,
      "ri": 220,
      "Ġk": 221,
      "ght": 222,
      "Ġmo": 223,
      "Ġabout": 224,
      "Ġsom": 225,
      "Ġdo": 226,
      "Ġsu": 227,
      "ould": 228,
      "Ġhe": 229,
      "ill": 230,
      "th": 231,
      "Ġwe": 232,
      "pp": 233,
      "Ġat": 234,
      "ir": 235,
      "very": 236,
      "ct": 237,
      "au": 238,
      "am": 239,
      "Ġne": 240,
      "ur": 241,
      "op": 242,
      "Ġjust": 243,
      "Ġwhen": 244,
      "Ġal": 245,
      "ous": 246,
      "ce": 247,
      "Ġor": 248,
      "art": 249,
      "Ġbec": 250,
      "nt": 251,
      "Ġall": 252,
      "ain": 253,
      "red": 254,
      "Ġlo": 255,
      "ause": 256,
      "fe": 257,
      "ful": 258,
      "Ġgo": 259,
      "ight": 260,
      "Ġwor": 261,
      "Ġkn": 262,
      "Ġcom": 263,
      "Ġmore": 264,
      "Ġbecause": 265,
      "ro": 266,
      "one": 267,
      "ate": 268,
      "ab": 269,
      "Ġch": 270,
      "Ġcan": 271,
      "ter": 272,
      "Ġup": 273,
      "Ġcon": 274,
      "elf": 275,
      "Ġex": 276,
      "Ġde": 277,
      "Ġse": 278,
      "res": 279,
      "Ġknow": 280,
      "Ġout": 281,
      "Ġget": 282,
      "Ġma": 283,
      "Ġsome": 284,
      "Ġtim": 285,
      "Ġfr": 286,
      "king": 287,
      "sed": 288,
      "Ġtr": 289,
      "Ġreally": 290,
      "ers": 291,
      "Ġare": 292,
      "ated": 293,
      "ort": 294,
      "itt": 295,
      "Ġun": 296,
      "ely": 297,
      "Ġv": 298,
      "il": 299,
      "ive": 300,
      "ge": 301,
      "Ġby": 302,
      "Ġdon": 303,
      "ell": 304,
      "ind": 305,
      "self": 306,
      "Ġvery": 307,
      "Ġbeen": 308,
      "Ġwhat": 309,
      "Ġwant": 310,
      "ough": 311,
      "Ġpe": 312,
      "Ġif": 313,
      "Ġmyself": 314,
      "Ġtime": 315,
      "ast": 316,
      "Ġle": 317,
      "un": 318,
      "Ġhow": 319,
      "pe": 320,
      "hing": 321,
      "ong": 322,
      "ra": 323,
      "Ġany": 324,
      "qu": 325,
      "Ġwould": 326,
      "Ġthin": 327,
      "ven": 328,
      "Ġwill": 329,
      "ays": 330,
      "Ġhad": 331,
      "Ġthey": 332,
      "ation": 333,
      "Ġnow": 334,
      "Ġdid": 335,
      "ittle": 336,
      "Ġen": 337,
      "um": 338,
      "Ġlittle": 339,
      "us": 340,
      "Ġsomet": 341,
      "Ġwho": 342,
      "Ġfrom": 343,
      "her": 344,
      "Ġpeop": 345,
      "ard": 346,
      "Ġbeing": 347,
      "Ġpo": 348,
      "Ġpeople": 349,
      "ty": 350,
      "Ġthing": 351,
      "lo": 352,
      "end": 353,
      "ood": 354,
      "ving": 355,
      "Ġdis": 356,
      "able": 357,
      "ack": 358,
      "Ġevery": 359,
      "Ġbit": 360,
      "Ġher": 361,
      "Ġint": 362,
      "Ġthem": 363,
      "ist": 364,
      "em": 365,
      "Ġthink": 366,
      "uch": 367,
      "Ġone": 368,
      "Ġag": 369,
      "Ġpre": 370,
      "ound": 371,
      "Ġstill": 372,
      "pt": 373,
      "Ġthan": 374,
      "ci": 375,
      "Ġeven": 376,
      "Ġover": 377,
      "Ġno": 378,
      "ie": 379,
      "ep": 380,
      "ved": 381,
      "ite": 382,
      "ry": 383,
      "Ġive": 384,
      "Ġpro": 385,
      "ol": 386,
      "Ġmuch": 387,
      "ook": 388,
      "Ġthere": 389,
      "Ġar": 390,
      "Ġcould": 391,
      "ig": 392,
      "Ġneed": 393,
      "Ġhim": 394,
      "less": 395,
      "Ġlife": 396,
      "Ġaf": 397,
      "ace": 398,
      "Ġits": 399,
      "Ġpl": 400,
      "Ġtoo": 401,
      "are": 402,
      "ck": 403,
      "ish": 404,
      "ure": 405,
      "Ġsomething": 406,
      "oy": 407,
      "Ġmake": 408,
      "Ġhel": 409,
      "Ġoth": 410,
      "Ġlove": 411,
      "and": 412,
      "Ġway": 413,
      "Ġthings": 414,
      "ag": 415,
      "Ġqu": 416,
      "day": 417,
      "ious": 418,
      "Ġstart": 419,
      "Ġdont": 420,
      "Ġhelp": 421,
      "ass": 422,
      "Ġfri": 423,
      "Ġgoing": 424,
      "ome": 425,
      "ity": 426,
      "ile": 427,
      "Ġem": 428,
      "Ġgr": 429,
      "Ġday": 430,
      "Ġhapp": 431,
      "Ġaw": 432,
      "Ġwr": 433,
      "ore": 434,
      "ich": 435,
      "ine": 436,
      "ame": 437,
      "ear": 438,
      "ak": 439,
      "Ġcomp": 440,
      "ere": 441,
      "Ġsee": 442,
      "thing": 443,
      "Ġrel": 444,
      "Ġback": 445,
      "Ġsay": 446,
      "Ġshe": 447,
      "nder": 448,
      "act": 449,
      "ake": 450,
      "Ġwork": 451,
      "per": 452,
      "Ġman": 453,
      "Ġhas": 454,
      "Ġfriend": 455,
      "ide": 456,
      "Ġad": 457,
      "Ġgu": 458,
      "Ġsa": 459,
      "Ġstr": 460,
      "Ġgood": 461,
      "Ġsp": 462,
      "reat": 463,
      "Ġres": 464,
      "ud": 465,
      "Ġus": 466,
      "ting": 467,
      "ose": 468,
      "Ġco": 469,
      "Ġpret": 470,
      "Ġac": 471,
      "Ġpart": 472,
      "ning": 473,
      "Ġpr": 474,
      "Ġyour": 475,
      "Ġhis": 476,
      "ways": 477,
      "Ġshould": 478,
      "ick": 479,
      "ade": 480,
      "our": 481,
      "Ġright": 482,
      "Ġinto": 483,
      "Ġwhich": 484,
      "Ġagain": 485,
      "so": 486,
      "Ġalways": 487,
      "ressed": 488,
      "Ġafter": 489,
      "own": 490,
      "Ġtheir": 491,
      "Ġpretty": 492,
      "Ġact": 493,
      "ies": 494,
      "Ġcont": 495,
      "ble": 496,
      "Ġother": 497,
      "ment": 498,
      "Ġrem": 499,
      "ft": 500,
      "wh": 501,
      "Ġdi": 502,
      "ress": 503,
      "Ġtry": 504,
      "Ġonly": 505,
      "Ġhop": 506,
      "Ġmost": 507,
      "ff": 508,
      "Ġread": 509,
      "Ġyear": 510,
      "ually": 511,
      "Ġfeels": 512,
      "Ġthese": 513,
      "Ġalso": 514,
      "Ġpers": 515,
      "Ġfeelings": 516,
      "Ġlong": 517,
      "Ġthen": 518,
      "Ġoff": 519,
      "iz": 520,
      "Ġid": 521,
      "ach": 522,
      "Ġtoday": 523,
      "Ġwee": 524,
      "Ġthr": 525,
      "Ġsm": 526,
      "Ġimp": 527,
      "ought": 528,
      "Ġcl": 529,
      "Ġbet": 530,
      "Ġour": 531,
      "Ġcant": 532,
      "Ġgot": 533,
      "az": 534,
      "Ġnever": 535,
      "ber": 536,
      "ool": 537,
      "Ġperson": 538,
      "Ġwere": 539,
      "ect": 540,
      "ice": 541,
      "ward": 542,
      "Ġlook": 543,
      "ull": 544,
      "Ġins": 545,
      "we": 546,
      "Ġkind": 547,
      "int": 548,
      "ha": 549,
      "Ġapp": 550,
      "Ġsupp": 551,
      "Ġhere": 552,
      "ily": 553,
      "Ġke": 554,
      "ang": 555,
      "Ġaround": 556,
      "Ġwo": 557,
      "ened": 558,
      "ip": 559,
      "Ġmis": 560,
      "est": 561,
      "Ġspe": 562,
      "ath": 563,
      "Ġthough": 564,
      "od": 565,
      "Ġdown": 566,
      "Ġsc": 567,
      "Ġdidnt": 568,
      "Ġwell": 569,
      "Ġmay": 570,
      "log": 571,
      "cept": 572,
      "Ġmom": 573,
      "Ġtal": 574,
      "Ġthose": 575,
      "ree": 576,
      "ured": 577,
      "Ġreal": 578,
      "Ġper": 579,
      "Ġbl": 580,
      "Ġbel": 581,
      "Ġthrough": 582,
      "ions": 583,
      "Ġmade": 584,
      "Ġnew": 585,
      "Ġlot": 586,
      "Ġthought": 587,
      "ence": 588,
      "Ġwhere": 589,
      "Ġfind": 590,
      "other": 591,
      "Ġlet": 592,
      "ue": 593,
      "ather": 594,
      "kes": 595,
      "Ġdoing": 596,
      "Ġstu": 597,
      "Ġless": 598,
      "Ġweek": 599,
      "fort": 600,
      "Ġdes": 601,
      "wn": 602,
      "tt": 603,
      "Ġsomeone": 604,
      "Ġsin": 605,
      "ult": 606,
      "Ġheart": 607,
      "Ġfa": 608,
      "Ġ@": 609,
      "ied": 610,
      "Ġhappy": 611,
      "Ġend": 612,
      "Ġhaving": 613,
      "ness": 614,
      "Ġconf": 615,
      "Ġhome": 616,
      "Ġsl": 617,
      "com": 618,
      "elt": 619,
      "Ġbr": 620,
      "Ġquite": 621,
      "age": 622,
      "fore": 623,
      "Ġmany": 624,
      "Ġwhy": 625,
      "ĠI": 626,
      "Ġte": 627,
      "Ġfriends": 628,
      "oth": 629,
      "ves": 630,
      "ttp": 631,
      "Ġhttp": 632,
      "Ġmakes": 633,
      "Ġfelt": 634,
      "ild": 635,
      "Ġter": 636,
      "pect": 637,
      "..": 638,
      "Ġlast": 639,
      "ten": 640,
      "Ġsure": 641,
      "Ġanything": 642,
      "Ġdays": 643,
      "vent": 644,
      "ange": 645,
      "ked": 646,
      "ens": 647,
      "Ġunder": 648,
      "Ġtw": 649,
      "Ġhope": 650,
      "Ġbefore": 651,
      "ired": 652,
      "Ġdist": 653,
      "get": 654,
      "Ġro": 655,
      "ss": 656,
      "Ġleft": 657,
      "Ġsince": 658,
      "ert": 659,
      "Ġenough": 660,
      "Ġtake": 661,
      "Ġaccept": 662,
      "Ġgetting": 663,
      "Ġown": 664,
      "be": 665,
      "Ġamaz": 666,
      "Ġtell": 667,
      "Ġel": 668,
      "leas": 669,
      "ance": 670,
      "med": 671,
      "atch": 672,
      "Ġpost": 673,
      "fied": 674,
      "Ġactually": 675,
      "Ġbetter": 676,
      "Ġsuch": 677,
      "ged": 678,
      "fect": 679,
      "Ġblog": 680,
      "Ġjo": 681,
      "Ġgen": 682,
      "Ġph": 683,
      "Ġbad": 684,
      "ug": 685,
      "Ġwithout": 686,
      "ont": 687,
      "Ġdr": 688,
      "Ġsometim": 689,
      "uck": 690,
      "Ġworld": 691,
      "joy": 692,
      "ations": 693,
      "Ġdep": 694,
      "Ġeverything": 695,
      "Ġfam": 696,
      "no": 697,
      "Ġsupport": 698,
      "Ġdoes": 699,
      "ib": 700,
      "Ġfin": 701,
      "Ġcome": 702,
      "Ġever": 703,
      "Ġsometimes": 704,
      "Ġsad": 705,
      "Ġremem": 706,
      "ans": 707,
      "ited": 708,
      "Ġaway": 709,
      "Ġfir": 710,
      "Ġkeep": 711,
      "Ġang": 712,
      "ap": 713,
      "ular": 714,
      "Ġfo": 715,
      "iting": 716,
      "Ġwhile": 717,
      "pl": 718,
      "Ġfew": 719,
      "cess": 720,
      "peri": 721,
      "Ġemot": 722,
      "read": 723,
      "Ġmoment": 724,
      "uct": 725,
      "ost": 726,
      "ating": 727,
      "Ġcr": 728,
      "Ġput": 729,
      "Ġstarted": 730,
      "Ġfirst": 731,
      "Ġmor": 732,
      "Ġgi": 733,
      "Ġexc": 734,
      "Ġremember": 735,
      "Ġnight": 736,
      "let": 737,
      "Ġsaid": 738,
      "Ġcou": 739,
      "Ġpain": 740,
      "Ġterri": 741,
      "ately": 742,
      "ody": 743,
      "Ġable": 744,
      "ren": 745,
      "Ġgl": 746,
      "Ġdec": 747,
      "ict": 748,
      "ref": 749,
      "Ġill": 750,
      "Ġself": 751,
      "used": 752,
      "ason": 753,
      "Ġcare": 754,
      "irl": 755,
      "Ġhref": 756,
      "Ġdisc": 757,
      "Ġwonder": 758,
      "Ġcar": 759,
      "xt": 760,
      "iv": 761,
      "ertain": 762,
      "Ġrather": 763,
      "Ġswe": 764,
      "ared": 765,
      "Ġhur": 766,
      "Ġfl": 767,
      "rr": 768,
      "Ġpass": 769,
      "ned": 770,
      "Ġlea": 771,
      "os": 772,
      "led": 773,
      "Ġdel": 774,
      "Ġgener": 775,
      "Ġsch": 776,
      "Ġtrying": 777,
      "Ġlist": 778,
      "Ġfamily": 779,
      "ner": 780,
      "Ġinc": 781,
      "Ġhand": 782,
      "Ġgod": 783,
      "Ġpleas": 784,
      "Ġhate": 785,
      "Ġchild": 786,
      "itated": 787,
      "Ġatt": 788,
      "ird": 789,
      "orm": 790,
      "Ġsit": 791,
      "fortable": 792,
      "Ġworth": 793,
      "Ġgirl": 794,
      "Ġmight": 795,
      "Ġcomplet": 796,
      "Ġve": 797,
      "ual": 798,
      "Ġhard": 799,
      "ank": 800,
      "Ġcra": 801,
      "Ġbeg": 802,
      "Ġseem": 803,
      "Ġsle": 804,
      "Ġtri": 805,
      "umb": 806,
      "Ġass": 807,
      "Ġtimes": 808,
      "Ġfun": 809,
      "Ġwal": 810,
      "Ġbook": 811,
      "Ġuse": 812,
      "eless": 813,
      "ise": 814,
      "ortant": 815,
      "Ġthank": 816,
      "Ġmaking": 817,
      "ump": 818,
      "whel": 819,
      "Ġrun": 820,
      "Ġgive": 821,
      "Ġhor": 822,
      "Ġstrong": 823,
      "ject": 824,
      "Ġoverwhel": 825,
      "Ġyet": 826,
      "Ġalone": 827,
      "Ġent": 828,
      "Ġsame": 829,
      "ionate": 830,
      "Ġshow": 831,
      "Ġhurt": 832,
      "ready": 833,
      "aking": 834,
      "Ġtwo": 835,
      "Ġalready": 836,
      "Ġamazing": 837,
      "Ġrest": 838,
      "Ġsweet": 839,
      "ny": 840,
      "app": 841,
      "Ġplace": 842,
      "Ġval": 843,
      "Ġyears": 844,
      "Ġwatch": 845,
      "imp": 846,
      "he": 847,
      "Ġhead": 848,
      "Ġcle": 849,
      "Ġcall": 850,
      "Ġplay": 851,
      "Ġmon": 852,
      "Ġsur": 853,
      "Ġrec": 854,
      "ys": 855,
      "Ġothers": 856,
      "Ġexperi": 857,
      "Ġtoward": 858,
      "Ġmorning": 859,
      "Ġunderst": 860,
      "Ġemotion": 861,
      "Ġbless": 862,
      "Ġener": 863,
      "usted": 864,
      "hip": 865,
      "gy": 866,
      "Ġsleep": 867,
      "aught": 868,
      "Ġschool": 869,
      "ical": 870,
      "ush": 871,
      "Ġword": 872,
      "ered": 873,
      "Ġboth": 874,
      "Ġwanted": 875,
      "ably": 876,
      "Ġdone": 877,
      "Ġes": 878,
      "Ġappre": 879,
      "Ġnothing": 880,
      "Ġext": 881,
      "ffe": 882,
      "ory": 883,
      "Ġreason": 884,
      "Ġloo": 885,
      "ub": 886,
      "Ġhum": 887,
      "Ġweird": 888,
      "Ġanother": 889,
      "Ġwrite": 890,
      "atis": 891,
      "Ġenjoy": 892,
      "Ġeveryone": 893,
      "Ġface": 894,
      "Ġguess": 895,
      "Ġreg": 896,
      "Ġbelie": 897,
      "Ġstressed": 898,
      "cial": 899,
      "Ġangry": 900,
      "Ġmind": 901,
      "most": 902,
      "Ġnext": 903,
      "cially": 904,
      "Ġgreat": 905,
      "ond": 906,
      "Ġirr": 907,
      "ppy": 908,
      "Ġsk": 909,
      "Ġpoint": 910,
      "Ġwom": 911,
      "Ġoverwhelmed": 912,
      "Ġcons": 913,
      "Ġlost": 914,
      "igh": 915,
      "Ġdidn": 916,
      "Ġunderstand": 917,
      "Ġfear": 918,
      "Ġcompletely": 919,
      "Ġoften": 920,
      "ase": 921,
      "Ġart": 922,
      "Ġalmost": 923,
      "Ġsho": 924,
      "Ġinst": 925,
      "rent": 926,
      "ced": 927,
      "Ġpos": 928,
      "Ġold": 929,
      "Ġkid": 930,
      "vel": 931,
      "ense": 932,
      "Ġser": 933,
      "Ġloved": 934,
      "Ġclass": 935,
      "Ġwent": 936,
      "Ġlear": 937,
      "Ġwa": 938,
      "Ġmar": 939,
      "Ġthinking": 940,
      "ire": 941,
      "ustr": 942,
      "Ġadm": 943,
      "ished": 944,
      "Ġtur": 945,
      "Ġexcited": 946,
      "ater": 947,
      "Ġblessed": 948,
      "etic": 949,
      "Ġpartic": 950,
      "Ġwrong": 951,
      "Ġfact": 952,
      "Ġsor": 953,
      "Ġposit": 954,
      "Ġpast": 955,
      "Ġstrange": 956,
      "Ġtalk": 957,
      "istic": 958,
      "Ġbody": 959,
      "Ġho": 960,
      "Ġear": 961,
      "Ġsy": 962,
      "oub": 963,
      "Ġmonth": 964,
      "ized": 965,
      "Ġind": 966,
      "ident": 967,
      "ised": 968,
      "pr": 969,
      "Ġonce": 970,
      "gic": 971,
      "Ġmean": 972,
      "Ġwriting": 973,
      "Ġmaybe": 974,
      "ude": 975,
      "Ġwhole": 976,
      "Ġvalu": 977,
      "Ġaccepted": 978,
      "Ġhated": 979,
      "ering": 980,
      "Ġfound": 981,
      "Ġlooking": 982,
      "ute": 983,
      "Ġok": 984,
      "ouse": 985,
      "ream": 986,
      "Ġanx": 987,
      "atisfied": 988,
      "Ġcomm": 989,
      "Ġmiss": 990,
      "ces": 991,
      "ary": 992,
      "ret": 993,
      "Ġbo": 994,
      "Ġop": 995,
      "Ġtired": 996,
      "pecially": 997,
      "Ġclo": 998,
      "Ġelse": 999,
      "Ġguil": 1000,
      "Ġespecially": 1001,
      "les": 1002,
      "Ġexp": 1003,
      "Ġhes": 1004,
      "ms": 1005,
      "Ġfrustr": 1006,
      "Ġche": 1007,
      "Ġcontent": 1008,
      "Ġob": 1009,
      "vers": 1010,
      "Ġhelpless": 1011,
      "Ġhour": 1012,
      "Ġprod": 1013,
      "ize": 1014,
      "athetic": 1015,
      "ail": 1016,
      "Ġmust": 1017,
      "Ġann": 1018,
      "Ġchar": 1019,
      "Ġused": 1020,
      "oud": 1021,
      "Ġlately": 1022,
      "Ġinv": 1023,
      "Ġcreat": 1024,
      "amed": 1025,
      "Ġgre": 1026,
      "Ġunt": 1027,
      "ever": 1028,
      "Ġach": 1029,
      "Ġbest": 1030,
      "Ġjob": 1031,
      "Ġimportant": 1032,
      "Ġbur": 1033,
      "icious": 1034,
      "Ġparticular": 1035,
      "ax": 1036,
      "ea": 1037,
      "Ġbu": 1038,
      "ia": 1039,
      "Ġperfect": 1040,
      "ient": 1041,
      "Ġfree": 1042,
      "gr": 1043,
      "aring": 1044,
      "Ġpar": 1045,
      "Ġeach": 1046,
      "Ġanyone": 1047,
      "Ġfar": 1048,
      "oint": 1049,
      "Ġtowards": 1050,
      "Ġstop": 1051,
      "Ġhon": 1052,
      "Ġey": 1053,
      "Ġprob": 1054,
      "Ġcal": 1055,
      "Ġsort": 1056,
      "Ġjoy": 1057,
      "Ġshare": 1058,
      "rem": 1059,
      "ign": 1060,
      "Ġsec": 1061,
      "Ġtold": 1062,
      "Ġpassionate": 1063,
      "Ġmin": 1064,
      "Ġstud": 1065,
      "Ġshak": 1066,
      "Ġuntil": 1067,
      "ew": 1068,
      "Ġagitated": 1069,
      "Ġhouse": 1070,
      "Ġdam": 1071,
      "Ġfull": 1072,
      "ps": 1073,
      "Ġpeace": 1074,
      "Ġsuc": 1075,
      "Ġemp": 1076,
      "Ġleave": 1077,
      "Ġsorry": 1078,
      "dd": 1079,
      "Ġpress": 1080,
      "Ġcold": 1081,
      "Ġsupporting": 1082,
      "ically": 1083,
      "Ġwasnt": 1084,
      "Ġleast": 1085,
      "Ġdiffe": 1086,
      "pid": 1087,
      "Ġtend": 1088,
      "Ġbre": 1089,
      "Ġprobably": 1090,
      "ract": 1091,
      "gn": 1092,
      "Ġemb": 1093,
      "Ġinside": 1094,
      "uring": 1095,
      "atter": 1096,
      "Ġmess": 1097,
      "Ġslight": 1098,
      "anger": 1099,
      "Ġner": 1100,
      "Ġlon": 1101,
      "ons": 1102,
      "ord": 1103,
      "Ġdet": 1104,
      "Ġbelieve": 1105,
      "raged": 1106,
      "Ġthats": 1107,
      "Ġdisapp": 1108,
      "uc": 1109,
      "iness": 1110,
      "ling": 1111,
      "arent": 1112,
      "eal": 1113,
      "Ġstarting": 1114,
      "Ġtot": 1115,
      "Ġuns": 1116,
      "iss": 1117,
      "uri": 1118,
      "Ġbig": 1119,
      "Ġproduct": 1120,
      "Ġbed": 1121,
      "vely": 1122,
      "Ġhone": 1123,
      "Ġstupid": 1124,
      "oid": 1125,
      "Ġinter": 1126,
      "Ġhot": 1127,
      "Ġscared": 1128,
      "raid": 1129,
      "Ġsuper": 1130,
      "Ġton": 1131,
      "Ġbab": 1132,
      "Ġmus": 1133,
      "uly": 1134,
      "Ġworking": 1135,
      "Ġpres": 1136,
      "Ġsub": 1137,
      "Ġsomewh": 1138,
      "ention": 1139,
      "Ġafraid": 1140,
      "arr": 1141,
      "Ġsense": 1142,
      "ors": 1143,
      "Ġfrustrated": 1144,
      "Ġdef": 1145,
      "Ġwish": 1146,
      "vious": 1147,
      "antic": 1148,
      "aged": 1149,
      "Ġdev": 1150,
      "ative": 1151,
      "Ġdepressed": 1152,
      "Ġstay": 1153,
      "Ġstuff": 1154,
      "Ġrelax": 1155,
      "ink": 1156,
      "Ġlive": 1157,
      "Ġsitu": 1158,
      "Ġwonderful": 1159,
      "ible": 1160,
      "Ġtor": 1161,
      "Ġboy": 1162,
      "ined": 1163,
      "Ġwords": 1164,
      "Ġhonest": 1165,
      "ead": 1166,
      "aut": 1167,
      "cious": 1168,
      "chy": 1169,
      "itting": 1170,
      "Ġsaying": 1171,
      "ained": 1172,
      "na": 1173,
      "Ġeas": 1174,
      "Ġamp": 1175,
      "ateful": 1176,
      "if": 1177,
      "ibly": 1178,
      "rist": 1179,
      "Ġanxious": 1180,
      "Ġpri": 1181,
      "assed": 1182,
      "Ġannoy": 1183,
      "Ġfinally": 1184,
      "Ġcoming": 1185,
      "Ġhigh": 1186,
      "ening": 1187,
      "Ġspend": 1188,
      "Ġglad": 1189,
      "pected": 1190,
      "Ġextrem": 1191,
      "Ġbegin": 1192,
      "Ġgenerous": 1193,
      "Ġloving": 1194,
      "Ġslightly": 1195,
      "ken": 1196,
      "Ġtruly": 1197,
      "Ġadd": 1198,
      "vie": 1199,
      "Ġtrust": 1200,
      "Ġcomfortable": 1201,
      "Ġrelations": 1202,
      "ging": 1203,
      "Ġsuccess": 1204,
      "Ġcame": 1205,
      "Ġbro": 1206,
      "Ġsurpr": 1207,
      "Ġbecome": 1208,
      "Ġexperience": 1209,
      "ided": 1210,
      "Ġspecial": 1211,
      "ple": 1212,
      "Ġlow": 1213,
      "oved": 1214,
      "vous": 1215,
      "ash": 1216,
      "Ġkids": 1217,
      "Ġrelationship": 1218,
      "Ġpositive": 1219,
      "Ġdisappoint": 1220,
      "mm": 1221,
      "Ġnervous": 1222,
      "Ġthankful": 1223,
      "Ġguilty": 1224,
      "Ġcool": 1225,
      "Ġinsp": 1226,
      "Ġroom": 1227,
      "Ġcertain": 1228,
      "Ġunc": 1229,
      "Ġheal": 1230,
      "Ġreading": 1231,
      "Ġluck": 1232,
      "Ġconfident": 1233,
      "Ġemotional": 1234,
      "Ġfaith": 1235,
      "Ġdeep": 1236,
      "ne": 1237,
      "ww": 1238,
      "astic": 1239,
      "Ġhear": 1240,
      "Ġgrou": 1241,
      "Ġlonely": 1242,
      "Ġhorri": 1243,
      "Ġbra": 1244,
      "cent": 1245,
      "Ġappreci": 1246,
      "uth": 1247,
      "Ġset": 1248,
      "Ġparticularly": 1249,
      "owing": 1250,
      "ility": 1251,
      "Ġeat": 1252,
      "Ġchange": 1253,
      "cked": 1254,
      "Ġexha": 1255,
      "Ġcontin": 1256,
      "Ġcount": 1257,
      "ark": 1258,
      "Ġwalk": 1259,
      "ier": 1260,
      "Ġwoke": 1261,
      "Ġuncom": 1262,
      "Ġbeloved": 1263,
      "irt": 1264,
      "Ġcalm": 1265,
      "Ġfood": 1266,
      "Ġabs": 1267,
      "Ġtaking": 1268,
      "als": 1269,
      "Ġbeaut": 1270,
      "Ġliked": 1271,
      "Ġrep": 1272,
      "Ġsw": 1273,
      "ulted": 1274,
      "gether": 1275,
      "Ġwar": 1276,
      "cy": 1277,
      "oring": 1278,
      "mor": 1279,
      "Ġproud": 1280,
      "Ġtotally": 1281,
      "Ġsym": 1282,
      "Ġduring": 1283,
      "Ġbus": 1284,
      "Ġsing": 1285,
      "Ġinstead": 1286,
      "Ġopt": 1287,
      "Ġweeks": 1288,
      "ying": 1289,
      "Ġchrist": 1290,
      "Ġhom": 1291,
      "ital": 1292,
      "!!": 1293,
      "Ġposs": 1294,
      "Ġsimp": 1295,
      "Ġextremely": 1296,
      "Ġmove": 1297,
      "Ġcry": 1298,
      "not": 1299,
      "ition": 1300,
      "ount": 1301,
      "unity": 1302,
      "sec": 1303,
      "Ġty": 1304,
      "Ġfuck": 1305,
      "Ġparent": 1306,
      "Ġwont": 1307,
      "ures": 1308,
      "Ġinf": 1309,
      "ix": 1310,
      "Ġpop": 1311,
      "more": 1312,
      "Ġmad": 1313,
      "Ġfall": 1314,
      "Ġplan": 1315,
      "bed": 1316,
      "Ġuncomfortable": 1317,
      "Ġchildren": 1318,
      "Ġdifferent": 1319,
      "ried": 1320,
      "urious": 1321,
      "Ġtort": 1322,
      "ments": 1323,
      "ither": 1324,
      "Ġsafe": 1325,
      "Ġtak": 1326,
      "row": 1327,
      "Ġtogether": 1328,
      "ph": 1329,
      "Ġcompl": 1330,
      "Ġsuff": 1331,
      "Ġanymore": 1332,
      "Ġknew": 1333,
      "Ġhours": 1334,
      "erm": 1335,
      "Ġfab": 1336,
      "ings": 1337,
      "Ġrelie": 1338,
      "Ġinsec": 1339,
      "Ġsent": 1340,
      "Ġhavent": 1341,
      "ities": 1342,
      "ili": 1343,
      "Ġincred": 1344,
      "Ġstand": 1345,
      "Ġexhausted": 1346,
      "orn": 1347,
      "gly": 1348,
      "Ġdoesnt": 1349,
      "Ġask": 1350,
      "Ġdecided": 1351,
      "ently": 1352,
      "Ġfine": 1353,
      "Ġtalking": 1354,
      "ents": 1355,
      "Ġlonger": 1356,
      "Ġmatter": 1357,
      "Ġpet": 1358,
      "Ġbaby": 1359,
      "Ġadmit": 1360,
      "Ġdisappointed": 1361,
      "Ġmissed": 1362,
      "Ġusually": 1363,
      "Ġembarr": 1364,
      "Ġvi": 1365,
      "Ġmeet": 1366,
      "ager": 1367,
      "vin": 1368,
      "Ġlovely": 1369,
      "sing": 1370,
      "ger": 1371,
      "Ġconfused": 1372,
      "Ġannoyed": 1373,
      "Ġmother": 1374,
      "pped": 1375,
      "Ġopp": 1376,
      "Ġcur": 1377,
      "Ġidea": 1378,
      "Ġthoughts": 1379,
      "Ġap": 1380,
      "Ġlucky": 1381,
      "air": 1382,
      "Ġdisg": 1383,
      "...": 1384,
      "Ġselfish": 1385,
      "Ġsick": 1386,
      "ealous": 1387,
      "Ġfunny": 1388,
      "Ġdream": 1389,
      "Ġret": 1390,
      "Ġcreative": 1391,
      "come": 1392,
      "atient": 1393,
      "Ġbreak": 1394,
      "Ġhold": 1395,
      "antly": 1396,
      "Ġjealous": 1397,
      "aw": 1398,
      "Ġbeat": 1399,
      "Ġpun": 1400,
      "Ġturn": 1401,
      "Ġunw": 1402,
      "Ġimag": 1403,
      "ushed": 1404,
      "ial": 1405,
      "Ġmonths": 1406,
      "Ġeyes": 1407,
      "Ġquest": 1408,
      "Ġpriv": 1409,
      "gle": 1410,
      "Ġcannot": 1411,
      "Ġstory": 1412,
      "Ġproble": 1413,
      "Ġcouldnt": 1414,
      "ĠT": 1415,
      "Ġtortured": 1416,
      "Ġhorrible": 1417,
      "Ġcomes": 1418,
      "Ġwww": 1419,
      "ester": 1420,
      "ues": 1421,
      "olut": 1422,
      "der": 1423,
      "Ġsituation": 1424,
      "Ġdri": 1425,
      "av": 1426,
      "Ġresp": 1427,
      "Ġpict": 1428,
      "Ġcoll": 1429,
      "kward": 1430,
      "Ġpur": 1431,
      "Ġcho": 1432,
      "Ġphot": 1433,
      "ensive": 1434,
      "ellow": 1435,
      "Ġenergy": 1436,
      "Ġdefin": 1437,
      "Ġmiser": 1438,
      "ween": 1439,
      "Ġrom": 1440,
      "Ġawkward": 1441,
      "Ġnice": 1442,
      "Ġcontro": 1443,
      "erest": 1444,
      "Ġgro": 1445,
      "Ġrelaxed": 1446,
      "Ġcre": 1447,
      "its": 1448,
      "Ġref": 1449,
      "ian": 1450,
      "Ġconst": 1451,
      "Ġed": 1452,
      "Ġnumb": 1453,
      "ulous": 1454,
      "Ġreject": 1455,
      "Ġcute": 1456,
      "Ġbetween": 1457,
      "ming": 1458,
      "ental": 1459,
      "Ġlight": 1460,
      "oney": 1461,
      "olved": 1462,
      "Ġliving": 1463,
      "Ġinsecure": 1464,
      "Ġnorm": 1465,
      "itty": 1466,
      "ully": 1467,
      "Ġhopeless": 1468,
      "Ġfre": 1469,
      "Ġvis": 1470,
      "Ġsong": 1471,
      "Ġwel": 1472,
      "amp": 1473,
      "Ġsymp": 1474,
      "Ġlau": 1475,
      "Ġresent": 1476,
      "Ġvul": 1477,
      "Ġmusic": 1478,
      "Ġhealth": 1479,
      "Ġcaring": 1480,
      "ety": 1481,
      "Ġbitter": 1482,
      "Ġmed": 1483,
      "Ġoffe": 1484,
      "Ġmoney": 1485,
      "Ġtop": 1486,
      "Ġunha": 1487,
      "atic": 1488,
      "Ġempty": 1489,
      "Ġsurprised": 1490,
      "Ġdefe": 1491,
      "Ġwomen": 1492,
      "Ġago": 1493,
      "Ġterrible": 1494,
      "Ġvulner": 1495,
      "Ġknowing": 1496,
      "Ġsoon": 1497,
      "Ġsuccessful": 1498,
      "Ġfut": 1499,
      "Ġtook": 1500,
      "Ġsomewhat": 1501,
      "rill": 1502,
      "nect": 1503,
      "issed": 1504,
      "Ġeither": 1505,
      "Ġembarrassed": 1506,
      "side": 1507,
      "Ġclose": 1508,
      "Ġsmart": 1509,
      "Ġdiv": 1510,
      "Ġunsure": 1511,
      "Ġawful": 1512,
      "itable": 1513,
      "Ġuseless": 1514,
      "Ġcause": 1515,
      "rived": 1516,
      "cho": 1517,
      "Ġkinda": 1518,
      "Ġregret": 1519,
      "Ġburd": 1520,
      "Ġevent": 1521,
      "Ġglo": 1522,
      "Ġunhappy": 1523,
      "Ġtonight": 1524,
      "Ġbas": 1525,
      "Ġdiss": 1526,
      "Ġmel": 1527,
      "Ġdoub": 1528,
      "Ġdeterm": 1529,
      "Ġdistract": 1530,
      "Ġincredibly": 1531,
      "Ġhomes": 1532,
      "Ġwatching": 1533,
      "Ġash": 1534,
      "Ġexpl": 1535,
      "Ġsex": 1536,
      "Ġdanger": 1537,
      "lf": 1538,
      "Ġvulnerable": 1539,
      "Ġconvin": 1540,
      "Ġmet": 1541,
      "Ġseeing": 1542,
      "Ġside": 1543,
      "Ġinspired": 1544,
      "Ġfuture": 1545,
      "Ġintim": 1546,
      "Ġviol": 1547,
      "Ġmiserable": 1548,
      "Ġhands": 1549,
      "Ġfoll": 1550,
      "bb": 1551,
      "Ġspent": 1552,
      "Ġallow": 1553,
      "Ġseems": 1554,
      "fully": 1555,
      "Ġcontrol": 1556,
      "ouraged": 1557,
      "Ġinno": 1558,
      "Ġprecious": 1559,
      "rect": 1560,
      "Ġbothered": 1561,
      "Ġirritated": 1562,
      "orge": 1563,
      "Ġhair": 1564,
      "Ġsmall": 1565,
      "Ġadvent": 1566,
      "ented": 1567,
      "pping": 1568,
      "itely": 1569,
      "Ġcouple": 1570,
      "Ġtouch": 1571,
      "Ġcour": 1572,
      "Ġiss": 1573,
      "Ġsatisfied": 1574,
      "Ġdesp": 1575,
      "ates": 1576,
      "Ġwoman": 1577,
      "ee": 1578,
      "'s": 1579,
      "dden": 1580,
      "Ġproductive": 1581,
      "Ġisol": 1582,
      "otten": 1583,
      "Ġabsolut": 1584,
      "ellig": 1585,
      "Ġworthless": 1586,
      "Ġinterest": 1587,
      "aded": 1588,
      "ored": 1589,
      "Ġgent": 1590,
      "Ġintellig": 1591,
      "how": 1592,
      "Ġsn": 1593,
      "Ġpissed": 1594,
      "Ġsudden": 1595,
      "Ġrich": 1596,
      "Ġconsid": 1597,
      "Ġfail": 1598,
      "Ġec": 1599,
      "Ġsecond": 1600,
      "Ġrunning": 1601,
      "har": 1602,
      "Ġboring": 1603,
      "Ġfool": 1604,
      "Ġshitty": 1605,
      "Ġabsolutely": 1606,
      "sp": 1607,
      "ĠS": 1608,
      "Ġhalf": 1609,
      "zy": 1610,
      "Ġweight": 1611,
      "ave": 1612,
      "Ġready": 1613,
      "Ġrude": 1614,
      "Ġskin": 1615,
      "Ġterrified": 1616,
      "Ġpeaceful": 1617,
      "edy": 1618,
      "Ġgiven": 1619,
      "Ġdeal": 1620,
      "Ġhopeful": 1621,
      "umpy": 1622,
      "irty": 1623,
      "nded": 1624,
      "Ġgentle": 1625,
      "Ġfant": 1626,
      "Ġshy": 1627,
      "Ġsitting": 1628,
      "cer": 1629,
      "osed": 1630,
      "Ġoptim": 1631,
      "Ġdoubt": 1632,
      "aining": 1633,
      "Ġhappen": 1634,
      "Ġopen": 1635,
      "ower": 1636,
      "Ġdisgusted": 1637,
      "Ġdumb": 1638,
      "Ġrelieved": 1639,
      "Ġfriendly": 1640,
      "kend": 1641,
      "Ġugly": 1642,
      "Ġprivile": 1643,
      "acter": 1644,
      "Ġdetermined": 1645,
      "Ġguy": 1646,
      "Ġlonging": 1647,
      "Ġparan": 1648,
      "lic": 1649,
      "Ġgorge": 1650,
      "Ġuncertain": 1651,
      "Ġfaithful": 1652,
      "Ġamazed": 1653,
      "Ġspir": 1654,
      "iful": 1655,
      "Ġdefinitely": 1656,
      "Ġweekend": 1657,
      "Ġphys": 1658,
      "omy": 1659,
      "band": 1660,
      "Ġgorgeous": 1661,
      "Ġsumm": 1662,
      "Ġashamed": 1663,
      "sad": 1664,
      "riend": 1665,
      "Ġinnocent": 1666,
      "fic": 1667,
      "body": 1668,
      "Ġalong": 1669,
      "ket": 1670,
      "Ġuseful": 1671,
      "Ġirritable": 1672,
      "Ġz": 1673,
      "sadness": 1674,
      "Ġinade": 1675,
      "Ġalth": 1676,
      "Ġinadequ": 1677,
      "Ġhus": 1678,
      "Ġsaw": 1679,
      "up": 1680,
      "Ġimpressed": 1681,
      "og": 1682,
      "friend": 1683,
      "Ġpopular": 1684,
      "Ġhesit": 1685,
      "Ġresentful": 1686,
      "Ġrejected": 1687,
      "Ġsound": 1688,
      "Ġthreat": 1689,
      "Ġyoure": 1690,
      "Ġwhate": 1691,
      "Ġdiscouraged": 1692,
      "ĠM": 1693,
      "Ġexperien": 1694,
      "Ġdangerous": 1695,
      "Ġalthough": 1696,
      "Ġtender": 1697,
      "set": 1698,
      "Ġpleasant": 1699,
      "Ġbegan": 1700,
      "Ġromantic": 1701,
      "Ġvaluable": 1702,
      "Ġdistur": 1703,
      "Ġisolated": 1704,
      "Ġwear": 1705,
      "Ġmood": 1706,
      "Ġvalued": 1707,
      "Ġparents": 1708,
      "Ġpie": 1709,
      "Ġcol": 1710,
      "while": 1711,
      "ah": 1712,
      "Ġthrill": 1713,
      "Ġwhatever": 1714,
      "Ġyoun": 1715,
      "Ġpressured": 1716,
      "Ġgone": 1717,
      "Ġhusband": 1718,
      "Ġdull": 1719,
      "Ġaching": 1720,
      "Ġenerget": 1721,
      "Ġfest": 1722,
      "Ġbrave": 1723,
      "Ġheartb": 1724,
      "Ġcharacter": 1725,
      "Ġgiving": 1726,
      "Ġbeautiful": 1727,
      "Ġwhenever": 1728,
      "Ġjoyful": 1729,
      "Ġgrumpy": 1730,
      "Ġimpatient": 1731,
      "Ġsomehow": 1732,
      "stal": 1733,
      "ics": 1734,
      "Ġcrank": 1735,
      "Ġtroub": 1736,
      "Ġhomesick": 1737,
      "Ġig": 1738,
      "Ġcurious": 1739,
      "Ġwake": 1740,
      "Ġworthwhile": 1741,
      "Ġtried": 1742,
      "Ġintimid": 1743,
      "Ġsat": 1744,
      "Ġreluct": 1745,
      "Ġenergetic": 1746,
      "Ġdistracted": 1747,
      "Ġconnect": 1748,
      "Ġdrained": 1749,
      "ote": 1750,
      "Ġeager": 1751,
      "Ġsympathetic": 1752,
      "Ġrushed": 1753,
      "Ġshocked": 1754,
      "Ġstrug": 1755,
      "Ġrespected": 1756,
      "Ġparanoid": 1757,
      "Ġremind": 1758,
      "ĠH": 1759,
      "Ġthree": 1760,
      "Ġconvinced": 1761,
      "Ġwelcom": 1762,
      "Ġreass": 1763,
      "Ġexact": 1764,
      "ether": 1765,
      "Ġdelicious": 1766,
      "Ġoptimistic": 1767,
      "Ġintelligent": 1768,
      "Ġcrappy": 1769,
      "Ġacceptable": 1770,
      "Ġlethar": 1771,
      "Ġyester": 1772,
      "Ġappreh": 1773,
      "Ġbroke": 1774,
      "Ġblank": 1775,
      "Ġcranky": 1776,
      "Ġll": 1777,
      "igor": 1778,
      "Ġrestless": 1779,
      "Ġsimply": 1780,
      "ggy": 1781,
      "Ġinadequate": 1782,
      "Ġwin": 1783,
      "Ġbitchy": 1784,
      "Ġacc": 1785,
      "way": 1786,
      "Ġasked": 1787,
      "Ġigno": 1788,
      "Ġtruth": 1789,
      "Ġfake": 1790,
      "Ġoh": 1791,
      "Ġdefeated": 1792,
      "Ġbring": 1793,
      "ene": 1794,
      "Ġreluctant": 1795,
      "Ġsuffering": 1796,
      "br": 1797,
      "'t": 1798,
      "Ġlethargic": 1799,
      "Ġignored": 1800,
      "Ġnat": 1801,
      "Ġoffended": 1802,
      "cri": 1803,
      "Ġsun": 1804,
      "Ġneeded": 1805,
      "ks": 1806,
      "Ġprivileged": 1807,
      "Ġdirty": 1808,
      "omed": 1809,
      "cc": 1810,
      "usion": 1811,
      "Ġapprehensive": 1812,
      "Ġintimidated": 1813,
      "Ġexpress": 1814,
      "Ġfoc": 1815,
      "Ġnostal": 1816,
      "Ġfucked": 1817,
      "Ġwhether": 1818,
      "att": 1819,
      "Ġdivine": 1820,
      "Ġchang": 1821,
      "Ġmelan": 1822,
      "icate": 1823,
      "Ġforg": 1824,
      "Ġlame": 1825,
      "Ġpleased": 1826,
      "Ġhesitant": 1827,
      "Ġvain": 1828,
      "Ġpray": 1829,
      "Ġtre": 1830,
      "Ġclever": 1831,
      "Ġfig": 1832,
      "Ġhappened": 1833,
      "Ġvital": 1834,
      "Ġinsulted": 1835,
      "Ġexpect": 1836,
      "Ġshaky": 1837,
      "Ġbar": 1838,
      "Ġdissatisfied": 1839,
      "Ġhumili": 1840,
      "Ġassured": 1841,
      "Ġdra": 1842,
      "Ġbeaten": 1843,
      "Ġyesterday": 1844,
      "Ġisnt": 1845,
      "Ġdisturbed": 1846,
      "Ġfright": 1847,
      "Ġneedy": 1848,
      "Ġdevast": 1849,
      "Ġpa": 1850,
      "Ġhonored": 1851,
      "Ġones": 1852,
      "Ġeating": 1853,
      "Ġpathetic": 1854,
      "Ġcas": 1855,
      "Ġwelcomed": 1856,
      "Ġwronged": 1857,
      "Ġans": 1858,
      "Ġrealize": 1859,
      "Ġdeprived": 1860,
      "Ġbeh": 1861,
      "Ġhu": 1862,
      "Ġgreedy": 1863,
      "Ġsincere": 1864,
      "choly": 1865,
      "Ġfoolish": 1866,
      "Ġeff": 1867,
      "Ġagainst": 1868,
      "heart": 1869,
      "Ġmelancholy": 1870,
      "Ġburdened": 1871,
      "sh": 1872,
      "Ġsoci": 1873,
      "Ġthrilled": 1874,
      "Ġwanting": 1875,
      "Ġpub": 1876,
      "roken": 1877,
      "Ġheartbroken": 1878,
      "Ġgroggy": 1879,
      "Ġmid": 1880,
      "Ġtroubled": 1881,
      "Ġpunished": 1882,
      "Ġgloomy": 1883,
      "Ġfantastic": 1884,
      "Ġshort": 1885,
      "ime": 1886,
      "Ġsmug": 1887,
      "Ġhumiliated": 1888,
      "Ġabused": 1889,
      "Ġserious": 1890,
      "Ġhell": 1891,
      "Ġsummer": 1892,
      "mas": 1893,
      "Ġwouldnt": 1894,
      "Ġsentim": 1895,
      "otic": 1896,
      "Ġemotions": 1897,
      "uous": 1898,
      "Ġstep": 1899,
      "Ġvo": 1900,
      "Ġthreatened": 1901,
      "Ġopport": 1902,
      "Ġlearn": 1903,
      "Ġviolent": 1904,
      "Ġca": 1905,
      "Ġmine": 1906,
      "Ġdevastated": 1907,
      "Ġlack": 1908,
      "Ġbreat": 1909,
      "Ġmellow": 1910,
      "Ġlate": 1911,
      "iday": 1912,
      "Ġcourse": 1913,
      "Ġmem": 1914,
      "Ġdoomed": 1915,
      "Ġsuperi": 1916,
      "Ġquick": 1917,
      "Ġreassured": 1918,
      "Ġnostalgic": 1919,
      "Ġsou": 1920,
      "Ġfil": 1921,
      "Ġfrightened": 1922,
      "Ġlous": 1923,
      "Ġsuperior": 1924,
      "sel": 1925,
      "Ġtaken": 1926,
      "ove": 1927,
      "Ġrotten": 1928,
      "Ġcontinue": 1929,
      "Ġspirit": 1930,
      "Ġinvigor": 1931,
      "Ġwarm": 1932,
      "Ġwithin": 1933,
      "Ġpersonal": 1934,
      "Ġgra": 1935,
      "Ġtalented": 1936,
      "Ġfestive": 1937,
      "Ġlousy": 1938,
      "Ġunimp": 1939,
      "Ġinvigorated": 1940,
      "Ġlaugh": 1941,
      "Ġhonestly": 1942,
      "Ġtheres": 1943,
      "Ġunimportant": 1944,
      "Ġtomor": 1945,
      "Ġreb": 1946,
      "Ġstate": 1947,
      "Ġforward": 1948,
      "Ġexactly": 1949,
      "Ġpull": 1950,
      "Ġenvious": 1951,
      "Ġfabulous": 1952,
      "Ġav": 1953,
      "Ġresolved": 1954,
      "Ġways": 1955,
      "Ġtomorrow": 1956,
      "Ġuni": 1957,
      "urous": 1958,
      "Ġretur": 1959,
      "gs": 1960,
      "oured": 1961,
      "Ġneeds": 1962,
      "Ġproject": 1963,
      "Ġshaken": 1964,
      "Ġungr": 1965,
      "Ġlead": 1966,
      "Ġnaught": 1967,
      "Ġtelling": 1968,
      "Ġadventurous": 1969,
      "ĠW": 1970,
      "Ġfore": 1971,
      "Ġnear": 1972,
      "Ġeng": 1973,
      "Ġgirls": 1974,
      "Ġunp": 1975,
      "Ġdirect": 1976,
      "Ġoutside": 1977,
      "Ġusing": 1978,
      "Ġet": 1979,
      "Ġmessy": 1980,
      "Ġdamaged": 1981,
      "Ġvirt": 1982,
      "yle": 1983,
      "Ġexam": 1984,
      "eas": 1985,
      "Ġnaughty": 1986,
      "iter": 1987,
      "Ġungrateful": 1988,
      "Ġwasn": 1989,
      "elcome": 1990,
      "ĠA": 1991,
      "aces": 1992,
      "Ġsmile": 1993,
      "Ġhuman": 1994,
      "Ġsentimental": 1995,
      "Ġguys": 1996,
      "Ġrealized": 1997,
      "Ġchristmas": 1998,
      "Ġlater": 1999,
      "Ġvict": 2000,
      "Ġgame": 2001,
      "Ġdisheart": 2002,
      "Ġmot": 2003,
      "ike": 2004,
      "ones": 2005,
      "Ġeffort": 2006,
      "Ġgroup": 2007,
      "Ġunwelcome": 2008,
      "Ġecst": 2009,
      "Ġfearful": 2010,
      "Ġpetty": 2011,
      "Ġdisheartened": 2012,
      "Ġansw": 2013,
      "Ġfront": 2014,
      "Ġsupportive": 2015,
      "Ġwater": 2016,
      "Ġmoments": 2017,
      "Ġdecis": 2018,
      "Ġdiscont": 2019,
      "Ġpick": 2020,
      "ife": 2021,
      "Ġjaded": 2022,
      "Ġlisten": 2023,
      "Ġwait": 2024,
      "Ġtrusting": 2025,
      "Ġmen": 2026,
      "Ġrid": 2027,
      "Ġfill": 2028,
      "Ġlives": 2029,
      "Ġtrue": 2030,
      "Ġbehind": 2031,
      "Ġunlo": 2032,
      "Ġaffect": 2033,
      "Ġslow": 2034,
      "Ġpay": 2035,
      "Ġbooks": 2036,
      "Ġur": 2037,
      "Ġgrateful": 2038,
      "Ġhol": 2039,
      "Ġecstatic": 2040,
      "Ġjour": 2041,
      "Ġmention": 2042,
      "Ġdiscontent": 2043,
      "Ġregretful": 2044,
      "Ġocc": 2045,
      "ross": 2046,
      "Ġresult": 2047,
      "Ġhorny": 2048,
      "Ġconsider": 2049,
      "Ġcurrent": 2050,
      "itch": 2051,
      "Ġleaving": 2052,
      "Ġinde": 2053,
      "Ġspeak": 2054,
      "Ġnormal": 2055,
      "ively": 2056,
      "Ġclean": 2057,
      "Ġconvers": 2058,
      "Ġsuddenly": 2059,
      "Ġwaiting": 2060,
      "Ġpower": 2061,
      "ucking": 2062,
      "Ġcalled": 2063,
      "irth": 2064,
      "Ġsingle": 2065,
      "Ġrece": 2066,
      "fortun": 2067,
      "Ġcasual": 2068,
      "Ġsto": 2069,
      "view": 2070,
      "Ġconstantly": 2071,
      "Ġyoung": 2072,
      "Ġut": 2073,
      "ffic": 2074,
      "Ġsupposed": 2075,
      "Ġmovie": 2076,
      "Ġfollow": 2077,
      "io": 2078,
      "Ġwind": 2079,
      "Ġdue": 2080,
      "Ġprom": 2081,
      "ott": 2082,
      "Ġred": 2083,
      "Ġtype": 2084,
      "Ġupset": 2085,
      "Ġprocess": 2086,
      "Ġmeans": 2087,
      "Ġtear": 2088,
      "orous": 2089,
      "Ġprof": 2090,
      "Ġbeginning": 2091,
      "oun": 2092,
      "cing": 2093,
      "ices": 2094,
      "yal": 2095,
      "Ġhonoured": 2096,
      "Ġmain": 2097,
      "outh": 2098,
      "selves": 2099,
      "Ġsoul": 2100,
      "Ġpregn": 2101,
      "unch": 2102,
      "empt": 2103,
      "Ġair": 2104,
      "Ġunfortun": 2105,
      "Ġenc": 2106,
      "Ġadv": 2107,
      "Ġrebell": 2108,
      "Ġx": 2109,
      "Ġfight": 2110,
      "Ġetc": 2111,
      "Ġloyal": 2112,
      "Ġfocus": 2113,
      "Ġstress": 2114,
      "ork": 2115,
      "book": 2116,
      "Ġhowever": 2117,
      "Ġdelicate": 2118,
      "Ġfucking": 2119,
      "Ġbecom": 2120,
      "utes": 2121,
      "Ġfav": 2122,
      "Ġaccom": 2123,
      "Ġteam": 2124,
      "ele": 2125,
      "Ġda": 2126,
      "Ġpol": 2127,
      "Ġbirth": 2128,
      "Ġworry": 2129,
      "Ġgets": 2130,
      "Ġjud": 2131,
      "Ġvirtuous": 2132,
      "Ġrebellious": 2133,
      "Ġunloved": 2134,
      "free": 2135,
      "Ġhost": 2136,
      "Ġlevel": 2137,
      "ines": 2138,
      "Ġcor": 2139,
      "Ġsays": 2140,
      "Ġseen": 2141,
      "Ġimagine": 2142,
      "Ġsens": 2143,
      "Ġdamn": 2144,
      "nday": 2145,
      "Ġdescri": 2146,
      "Ġearly": 2147,
      "Ġdark": 2148,
      "miss": 2149,
      "Ġform": 2150,
      "Ġcarefree": 2151,
      "Ġartistic": 2152,
      "Ġtrans": 2153,
      "Ġorder": 2154,
      "sy": 2155,
      "use": 2156,
      "ories": 2157,
      "Ġincl": 2158,
      "'m": 2159,
      "Ġcountry": 2160,
      "Ġchance": 2161,
      "ising": 2162,
      "Ġtreat": 2163,
      "Ġshit": 2164,
      "Ġfair": 2165,
      "ster": 2166,
      "allen": 2167,
      "Ġwalking": 2168,
      "Ġopportunity": 2169,
      "ane": 2170,
      "Ġcontented": 2171,
      "Ġcompan": 2172,
      "Ġidi": 2173,
      "ney": 2174,
      "Ġchur": 2175,
      "Ġquestion": 2176,
      "haps": 2177,
      "Ġname": 2178,
      "Ġforget": 2179,
      "gest": 2180,
      "Ġperhaps": 2181,
      "Ġclear": 2182,
      "line": 2183,
      "Ġcut": 2184,
      "Ġchallen": 2185,
      "Ġyes": 2186,
      "Ġgrow": 2187,
      "my": 2188,
      "Ġbuy": 2189,
      "Ġdad": 2190,
      "Ġgave": 2191,
      "Ġchoo": 2192,
      "Ġreach": 2193,
      "Ġvictim": 2194,
      "Ġdeser": 2195,
      "Ġcommunity": 2196,
      "ma": 2197,
      "ĠB": 2198,
      "arch": 2199,
      "Ġcolle": 2200,
      "Ġdespite": 2201,
      "Ġdeath": 2202,
      "Ġrecently": 2203,
      "rence": 2204,
      "Ġminutes": 2205,
      "ession": 2206,
      "gan": 2207,
      "Ġreco": 2208,
      "go": 2209,
      "Ġpract": 2210,
      "otect": 2211,
      "Ġcompass": 2212,
      "iew": 2213,
      "Ġdelight": 2214,
      "Ġteac": 2215,
      "Ġlooks": 2216,
      "Ġunpleas": 2217,
      "Ġdoesn": 2218,
      "Ġattention": 2219,
      "Ġgift": 2220,
      "Ġphone": 2221,
      "onna": 2222,
      "olog": 2223,
      "Ġview": 2224,
      "Ġcrazy": 2225,
      "itude": 2226,
      "Ġunpleasant": 2227,
      "Ġpictures": 2228,
      "lly": 2229,
      "Ġlol": 2230,
      "ser": 2231,
      "Ġwon": 2232,
      "Ġcase": 2233,
      "Ġeasily": 2234,
      "Ġchurch": 2235,
      "ayed": 2236,
      "itle": 2237,
      "Ġplease": 2238,
      "Ġfast": 2239,
      "Ġheard": 2240,
      "Ġhar": 2241,
      "illusion": 2242,
      "Ġsol": 2243,
      "Ġdisillusion": 2244,
      "Ġgoes": 2245,
      "bs": 2246,
      "Ġappreciative": 2247,
      "Ġcomfort": 2248,
      "Ġmoving": 2249,
      "Ġwants": 2250,
      "Ġspace": 2251,
      "ames": 2252,
      "Ġterrific": 2253,
      "Ġsusp": 2254,
      "ĠD": 2255,
      "vi": 2256,
      "Ġdisillusioned": 2257,
      "Ġcomment": 2258,
      "Ġant": 2259,
      "Ġdin": 2260,
      "Ġshes": 2261,
      "anna": 2262,
      "Ġexplain": 2263,
      "Ġputting": 2264,
      "Ġlose": 2265,
      "Ġstubb": 2266,
      "Ġsist": 2267,
      "Ġthanks": 2268,
      "Ġproblem": 2269,
      "Ġstubborn": 2270,
      "hib": 2271,
      "Ġdaz": 2272,
      "itter": 2273,
      "Ġintern": 2274,
      "Ġmostly": 2275,
      "Ġlearning": 2276,
      "Ġexcept": 2277,
      "Ġfather": 2278,
      "Ġlooked": 2279,
      "Ġdress": 2280,
      "ances": 2281,
      "Ġstudents": 2282,
      "Ġloss": 2283,
      "ills": 2284,
      "Ġhit": 2285,
      "Ġstom": 2286,
      "Ġgonna": 2287,
      "eric": 2288,
      "Ġage": 2289,
      "ung": 2290,
      "Ġdistressed": 2291,
      "Ġneg": 2292,
      "Ġpossible": 2293,
      "Ġemotionally": 2294,
      "Ġissues": 2295,
      "Ġfrantic": 2296,
      "Ġgenerally": 2297,
      "Ġeasy": 2298,
      "Ġdiffic": 2299,
      "ins": 2300,
      "Ġhang": 2301,
      "Ġanyway": 2302,
      "Ġsug": 2303,
      "Ġcouldn": 2304,
      "Ġprop": 2305,
      "Ġfond": 2306,
      "Ġkept": 2307,
      "by": 2308,
      "Ġtra": 2309,
      "form": 2310,
      "Ġokay": 2311,
      "Ġline": 2312,
      "ffect": 2313,
      "umph": 2314,
      "Ġsim": 2315,
      "Ġproblems": 2316,
      "ishing": 2317,
      "Ġunfortunate": 2318,
      "ism": 2319,
      "Ġtriumph": 2320,
      "Ġfit": 2321,
      "Ġdazed": 2322,
      "gress": 2323,
      "Ġpiece": 2324,
      "Ġglam": 2325,
      "Ġanger": 2326,
      "Ġlistening": 2327,
      "ĠG": 2328,
      "Ġaccompl": 2329,
      "aste": 2330,
      "Ġphysically": 2331,
      "Ġseason": 2332,
      "Ġnor": 2333,
      "Ġwed": 2334,
      "iced": 2335,
      "Ġbusy": 2336,
      "Ġrespons": 2337,
      "Ġsever": 2338,
      "Ġpot": 2339,
      "Ġbene": 2340,
      "Ġtheyre": 2341,
      "erc": 2342,
      "Ġsign": 2343,
      "Ġstrongly": 2344,
      "Ġvoice": 2345,
      "Ġstyle": 2346,
      "Ġentertain": 2347,
      "Ġstomach": 2348,
      "bly": 2349,
      "Ġlistless": 2350,
      "eg": 2351,
      "ards": 2352,
      "ement": 2353,
      "Ġlay": 2354,
      "Ġwearing": 2355,
      "Ġtrag": 2356,
      "ses": 2357,
      "cle": 2358,
      "Ġupon": 2359,
      "Ġsuspicious": 2360,
      "Ġbrain": 2361,
      "Ġcloth": 2362,
      "Ġworried": 2363,
      "Ġpressure": 2364,
      "right": 2365,
      "Ġgrand": 2366,
      "Ġentire": 2367,
      "Ġhealthy": 2368,
      "Ġfinished": 2369,
      "Ġtriumphant": 2370,
      "ape": 2371,
      "oc": 2372,
      "Ġpresent": 2373,
      "ze": 2374,
      "Ġcir": 2375,
      "Ġev": 2376,
      "dle": 2377,
      "Ġeffect": 2378,
      "Ġamount": 2379,
      "Ġlearned": 2380,
      "Ġnews": 2381,
      "Ġcertainly": 2382,
      "Ġkeen": 2383,
      "Ġhaha": 2384,
      "Ġtragic": 2385,
      "gth": 2386,
      "Ġsuppose": 2387,
      "Ġgeneral": 2388,
      "Ġeveryday": 2389,
      "Ġblack": 2390,
      "Ġtrip": 2391,
      "epy": 2392,
      "Ġavoid": 2393,
      "Ġfinding": 2394,
      "head": 2395,
      "aughter": 2396,
      "Ġdeeply": 2397,
      "Ġkill": 2398,
      "Ġsocial": 2399,
      "Ġstrugg": 2400,
      "Ġquickly": 2401,
      "Ġapart": 2402,
      "Ġfat": 2403,
      "ages": 2404,
      "Ġtest": 2405,
      "Ġcity": 2406,
      "Ġcomments": 2407,
      "Ġprep": 2408,
      "velop": 2409,
      "Ġpublic": 2410,
      "ails": 2411,
      "Ġpersonally": 2412,
      "Ġsr": 2413,
      "Ġconversation": 2414,
      "ĠL": 2415,
      "Ġsar": 2416,
      "Ġlosing": 2417,
      "Ġreturn": 2418,
      "orse": 2419,
      "Ġseriously": 2420,
      "Ġrespect": 2421,
      "Ġlad": 2422,
      "Ġnum": 2423,
      "Ġmil": 2424,
      "Ġwalked": 2425,
      "Ġsubmiss": 2426,
      "ction": 2427,
      "Ġvisit": 2428,
      "Ġfigure": 2429,
      "Ġwall": 2430,
      "Ġgotten": 2431,
      "Ġpresence": 2432,
      "Ġameric": 2433,
      "Ġutter": 2434,
      "Ġasking": 2435,
      "Ġexist": 2436,
      "Ġcrying": 2437,
      "Ġdelighted": 2438,
      "Ġamused": 2439,
      "Ġevening": 2440,
      "ledge": 2441,
      "Ġphotos": 2442,
      "Ġdifficult": 2443,
      "Ġstra": 2444,
      "Ġthemselves": 2445,
      "Ġfing": 2446,
      "to": 2447,
      "Ġir": 2448,
      "Ġappro": 2449,
      "Ġclothes": 2450,
      "Ġblo": 2451,
      "Ġprov": 2452,
      "room": 2453,
      "Ġreasons": 2454,
      "ides": 2455,
      "Ġvide": 2456,
      "Ġbecoming": 2457,
      "iet": 2458,
      "Ġsrc": 2459,
      "rie": 2460,
      "Ġpicture": 2461,
      "Ġfinish": 2462,
      "Ġdesire": 2463,
      "Ġtitle": 2464,
      "Ġdem": 2465,
      "pend": 2466,
      "ama": 2467,
      "ĠC": 2468,
      "where": 2469,
      "Ġworse": 2470,
      "Ġchoose": 2471,
      "Ġste": 2472,
      "Ġremorse": 2473,
      "Ġtyp": 2474,
      "iety": 2475,
      "Ġparty": 2476,
      "Ġrecei": 2477,
      "Ġske": 2478,
      "Ġcy": 2479,
      "Ġsomewhere": 2480,
      "iel": 2481,
      "Ġlar": 2482,
      "Ġcau": 2483,
      "Ġhoping": 2484,
      "Ġdrink": 2485,
      "hibited": 2486,
      "ific": 2487,
      "Ġwanna": 2488,
      "Ġawes": 2489,
      "Ġplaying": 2490,
      "idence": 2491,
      "ding": 2492,
      "iny": 2493,
      "oted": 2494,
      "Ġbeha": 2495,
      "Ġachie": 2496,
      "Ġfilm": 2497,
      "Ġtar": 2498,
      "Ġdecision": 2499,
      "igned": 2500,
      "Ġdoct": 2501,
      "Ġhappiness": 2502,
      "action": 2503,
      "Ġra": 2504,
      "Ġexerc": 2505,
      "els": 2506,
      "Ġanswer": 2507,
      "Ġtears": 2508,
      "Ġboyfriend": 2509,
      "ĠN": 2510,
      "Ġreaders": 2511,
      "Ġmotiv": 2512,
      "Ġshouldnt": 2513,
      "ots": 2514,
      "Ġ&": 2515,
      "Ġhaven": 2516,
      "Ġenv": 2517,
      "ptical": 2518,
      "Ġseveral": 2519,
      "Ġson": 2520,
      "Ġfully": 2521,
      "Ġteach": 2522,
      "Ġfeet": 2523,
      "Ġhappens": 2524,
      "Ġgrouchy": 2525,
      "Ġsadness": 2526,
      "Ġposts": 2527,
      "ats": 2528,
      "Ġended": 2529,
      "Ġaware": 2530,
      "Ġlots": 2531,
      "Ġquestions": 2532,
      "man": 2533,
      "Ġsubmissive": 2534,
      "Ġinhibited": 2535,
      "Ġguilt": 2536,
      "Ġdoubtful": 2537,
      "ants": 2538,
      "Ġsmo": 2539,
      "Ġweepy": 2540,
      "lish": 2541,
      "Ġhy": 2542,
      "Ġcele": 2543,
      "Ġmist": 2544,
      "Ġattempt": 2545,
      "Ġblogging": 2546,
      "ars": 2547,
      "rage": 2548,
      "Ġturned": 2549,
      "Ġskeptical": 2550,
      "Ġhuge": 2551,
      "Ġfour": 2552,
      "Ġinform": 2553,
      "Ġarms": 2554,
      "Ġcomplac": 2555,
      "Ġstories": 2556,
      "resh": 2557,
      "ination": 2558,
      "Ġmix": 2559,
      "Ġflo": 2560,
      "ĠĠ": 2561,
      "Ġsend": 2562,
      "Ġdevelop": 2563,
      "unk": 2564,
      "cks": 2565,
      "Ġdinner": 2566,
      "Ġnegle": 2567,
      "ingly": 2568,
      "Ġrace": 2569,
      "hood": 2570,
      "Ġtext": 2571,
      "Ġability": 2572,
      "Ġmemor": 2573,
      "Ġsurr": 2574,
      "Ġcollege": 2575,
      "Ġneglect": 2576,
      "Ġbusiness": 2577,
      "Ġwife": 2578,
      "Ġdistr": 2579,
      "Ġsurround": 2580,
      "Ġnumber": 2581,
      "Ġoffice": 2582,
      "Ġbuild": 2583,
      "uss": 2584,
      "Ġweak": 2585,
      "Ġextra": 2586,
      "Ġrad": 2587,
      "Ġweather": 2588,
      "Ġla": 2589,
      "Ġign": 2590,
      "Ġwrote": 2591,
      "Ġstre": 2592,
      "ric": 2593,
      "Ġcomplacent": 2594,
      "Ġdoor": 2595,
      "Ġcompany": 2596,
      "Ġideas": 2597,
      "others": 2598,
      "bo": 2599,
      "Ġearth": 2600,
      "uz": 2601,
      "Ġfan": 2602,
      "ym": 2603,
      "Ġfavor": 2604,
      "Ġblood": 2605,
      "Ġdaily": 2606,
      "Ġhostile": 2607,
      "Ġbey": 2608,
      "Ġwhite": 2609,
      "Ġawesome": 2610,
      "ression": 2611,
      "Ġassa": 2612,
      "Ġworked": 2613,
      "Ġletting": 2614,
      "Ġlim": 2615,
      "elling": 2616,
      "Ġmissing": 2617,
      "Ġbored": 2618,
      "Ġallowed": 2619,
      "Ġspr": 2620,
      "Ġopin": 2621,
      "Ġfacebook": 2622,
      "Ġliter": 2623,
      "ivity": 2624,
      "Ġlord": 2625,
      "Ġhelping": 2626,
      "Ġfur": 2627,
      "Ġwondering": 2628,
      "Ġpurp": 2629,
      "Ġloc": 2630,
      "Ġglamorous": 2631,
      "Ġcompassionate": 2632,
      "Ġbeyond": 2633,
      "Ġcelebr": 2634,
      "Ġboun": 2635,
      "Ġcond": 2636,
      "Ġmeant": 2637,
      "Ġwhats": 2638,
      "unt": 2639,
      "Ġcent": 2640,
      "Ġtarget": 2641,
      "Ġtem": 2642,
      "ries": 2643,
      "Ġstun": 2644,
      "Ġcheck": 2645,
      "Ġrain": 2646,
      "Ġreality": 2647,
      "rib": 2648,
      "ibility": 2649,
      "Ġimg": 2650,
      "Ġeye": 2651,
      "iod": 2652,
      "Ġquiet": 2653,
      "Ġspending": 2654,
      "Ġutterly": 2655,
      "Ġacross": 2656,
      "Ġforever": 2657,
      "Ġdeserve": 2658,
      "Ġmaj": 2659,
      "Ġsister": 2660,
      "Ġdead": 2661,
      "Ġmeeting": 2662,
      "Ġcult": 2663,
      "Ġkick": 2664,
      "land": 2665,
      "medi": 2666,
      "Ġdraw": 2667,
      "raph": 2668,
      "Ġorgan": 2669,
      "Ġperiod": 2670,
      "nal": 2671,
      "Ġnegative": 2672,
      "co": 2673,
      "Ġstuck": 2674,
      "Ġbreath": 2675,
      "fit": 2676,
      "Ġcap": 2677,
      "ural": 2678,
      "ational": 2679,
      "ror": 2680,
      "Ġhappening": 2681,
      "verse": 2682,
      "Ġgrad": 2683,
      "lect": 2684,
      "Ġbal": 2685,
      "ets": 2686,
      "ience": 2687,
      "Ġremorseful": 2688,
      "Ġissue": 2689,
      "Ġconcer": 2690,
      "Ġidiotic": 2691,
      "gin": 2692,
      "ĠO": 2693,
      "Ġpush": 2694,
      "Ġcreate": 2695,
      "Ġgives": 2696,
      "Ġcatch": 2697,
      "Ġpan": 2698,
      "Ġimmedi": 2699,
      "Ġbag": 2700,
      "hh": 2701,
      "Ġauth": 2702,
      "Ġheartless": 2703,
      "Ġdaughter": 2704,
      "ope": 2705,
      "Ġusual": 2706,
      "Ġassaulted": 2707,
      "Ġment": 2708,
      "Ġnon": 2709,
      "Ġobvious": 2710,
      "fer": 2711,
      "aced": 2712,
      "Ġcrap": 2713,
      "Ġposting": 2714,
      "work": 2715,
      "Ġappreciate": 2716,
      "Ġtakes": 2717,
      "icking": 2718,
      "Ġpoor": 2719,
      "Ġyourself": 2720,
      "ists": 2721,
      "Ġarent": 2722,
      "Ġoccas": 2723,
      "Ġkeeping": 2724,
      "Ġvictimized": 2725,
      "Ġequ": 2726,
      "Ġplayful": 2727,
      "Ġknows": 2728,
      "Ġgrace": 2729,
      "Ġthrow": 2730,
      "Ġserv": 2731,
      "Ġbirthday": 2732,
      "stem": 2733,
      "Ġbott": 2734,
      "que": 2735,
      "Ġprogress": 2736,
      "Ġfeed": 2737,
      "Ġground": 2738,
      "Ġcam": 2739,
      "Ġtech": 2740,
      "Ġjourney": 2741,
      "Ġconnection": 2742,
      "Ġer": 2743,
      "Ġsoft": 2744,
      "Ġprotect": 2745,
      "acious": 2746,
      "Ġmajor": 2747,
      "Ġsleeping": 2748,
      "itten": 2749,
      "Ġinclud": 2750,
      "ale": 2751,
      "Ġeleg": 2752,
      "Ġanim": 2753,
      "Ġfoot": 2754,
      "Ġsal": 2755,
      "Ġcomplete": 2756,
      "Ġapolog": 2757,
      "Ġstren": 2758,
      "ĠF": 2759,
      "Ġsil": 2760,
      "Ġahead": 2761,
      "Ġanxiety": 2762,
      "Ġcharacters": 2763,
      "Ġsystem": 2764,
      "Ġbadly": 2765,
      "Ġappear": 2766,
      "Ġholiday": 2767,
      "de": 2768,
      "Ġdie": 2769,
      "Ġonline": 2770,
      "Ġreview": 2771,
      "Ġposition": 2772,
      "cum": 2773,
      "Ġexperiences": 2774,
      "Ġdrive": 2775,
      "Ġyea": 2776,
      "Ġperform": 2777,
      "ouble": 2778,
      "illy": 2779,
      "Ġdistraught": 2780,
      "Ġstunned": 2781,
      "Ġabove": 2782,
      "Ġplaces": 2783,
      "Ġkiss": 2784,
      "Ġsociety": 2785,
      "Ġslowly": 2786,
      "Ġinformation": 2787,
      "Ġhateful": 2788,
      "Ġsarc": 2789,
      "Ġsharing": 2790,
      "Ġdescribe": 2791,
      "Ġelegant": 2792,
      "Ġteen": 2793,
      "gram": 2794,
      "ially": 2795,
      "Ġaff": 2796,
      "Ġoffer": 2797,
      "Ġsimple": 2798,
      "Ġevents": 2799,
      "Ġstrength": 2800,
      "Ġlink": 2801,
      "Ġenjoying": 2802,
      "Ġcarry": 2803,
      "Ġfriendship": 2804,
      "Ġroll": 2805,
      "Ġalive": 2806,
      "Ġmiddle": 2807,
      "Ġnoticed": 2808,
      "fear": 2809,
      "Ġregard": 2810,
      "ges": 2811,
      "Ġfairly": 2812,
      "Ġnature": 2813,
      "Ġdesper": 2814,
      "ts": 2815,
      "Ġshamed": 2816,
      "Ġdog": 2817,
      "Ġenjoyed": 2818,
      "iding": 2819,
      "Ġ-": 2820,
      "time": 2821,
      "ued": 2822,
      "ilar": 2823,
      "Ġunf": 2824,
      "Ġbrother": 2825,
      "Ġleg": 2826,
      "Ġhung": 2827,
      "Ġhug": 2828,
      "Ġgracious": 2829,
      "izing": 2830,
      "Ġchoice": 2831,
      "Ġep": 2832,
      "Ġjump": 2833,
      "Ġodd": 2834,
      "Ġcook": 2835,
      "Ġseemed": 2836,
      "Ġpossibly": 2837,
      "Ġearl": 2838,
      "ik": 2839,
      ":/": 2840,
      "ule": 2841,
      "Ġsociable": 2842,
      "Ġlaz": 2843,
      "Ġwouldn": 2844,
      "Ġden": 2845,
      "Ġbitch": 2846,
      "Ġmir": 2847,
      "Ġcomput": 2848,
      "Ġspo": 2849,
      "Ġtravel": 2850,
      "acing": 2851,
      "akes": 2852,
      "Ġvideo": 2853,
      "Ġstruggle": 2854,
      "Ġsqu": 2855,
      "Ġmouth": 2856,
      "Ġcommun": 2857,
      "Ġstopped": 2858,
      "ĠY": 2859,
      "Ġrecogn": 2860,
      "Ġdan": 2861,
      "Ġproper": 2862,
      "Ġfive": 2863,
      "Ġrequ": 2864,
      "Ġheav": 2865,
      "Ġlegs": 2866,
      "quot": 2867,
      "Ġland": 2868,
      "Ġminute": 2869,
      "Ġnotice": 2870,
      "Ġroad": 2871,
      "Ġlie": 2872,
      "Ġdreams": 2873,
      "ease": 2874,
      "lt": 2875,
      "Ġknown": 2876,
      "Ġqual": 2877,
      "Ġbetr": 2878,
      "Ġcaught": 2879,
      "Ġcoffe": 2880,
      "Ġpath": 2881,
      "Ġtraining": 2882,
      "Ġtwitter": 2883,
      "Ġvar": 2884,
      "Ġleaves": 2885,
      "Ġcurrently": 2886,
      "Ġpurpose": 2887,
      "Ġincre": 2888,
      "Ġdevoted": 2889,
      "Ġprogram": 2890,
      "Ġmanaged": 2891,
      "Ġarea": 2892,
      "wards": 2893,
      "anted": 2894,
      "Ġupt": 2895,
      "Ġmemories": 2896,
      "://": 2897,
      "Ġgig": 2898,
      "ume": 2899,
      "Ġentertained": 2900,
      "bers": 2901,
      "Ġblamed": 2902,
      "ield": 2903,
      "aa": 2904,
      "Ġpregnant": 2905,
      "Ġlively": 2906,
      "ther": 2907,
      "Ġjolly": 2908,
      "Ġcolor": 2909,
      "cl": 2910,
      "Ġhelped": 2911,
      "Ġcamp": 2912,
      "Ġafterno": 2913,
      "Ġstraight": 2914,
      "Ġisn": 2915,
      "nox": 2916,
      "Ġtown": 2917,
      "Ġcoffee": 2918,
      "ĠTh": 2919,
      "Ġsounds": 2920,
      "Ġvers": 2921,
      "Ġball": 2922,
      "Ġsecret": 2923,
      "Ġearlier": 2924,
      "Ġstrang": 2925,
      "Ġeduc": 2926,
      "Ġknowledge": 2927,
      "Ġconfidence": 2928,
      "Ġuptight": 2929,
      "ilities": 2930,
      "noxious": 2931,
      "Ġcareer": 2932,
      "Ġobnoxious": 2933,
      "Ġsarcastic": 2934,
      "ining": 2935,
      "ature": 2936,
      "onment": 2937,
      "rove": 2938,
      "Ġcharming": 2939,
      "Ġimm": 2940,
      "Ġunless": 2941,
      "rew": 2942,
      "Ġstick": 2943,
      "Ġnecess": 2944,
      "rav": 2945,
      "Ġaud": 2946,
      "Ġcomputer": 2947,
      "cis": 2948,
      "ton": 2949,
      "Ġbroken": 2950,
      "Ġcard": 2951,
      "Ġpaper": 2952,
      "Ġboys": 2953,
      "Ġsituations": 2954,
      "Ġwhom": 2955,
      "ows": 2956,
      "ified": 2957,
      "Ġbeauty": 2958,
      "Ġbehavi": 2959,
      "ho": 2960,
      "ift": 2961,
      "Ġwritten": 2962,
      "ĠP": 2963,
      "Ġagg": 2964,
      "spect": 2965,
      "Ġhist": 2966,
      "Ġchest": 2967,
      "Ġitself": 2968,
      "Ġwatched": 2969,
      "Ġexplo": 2970,
      "Ġenvir": 2971,
      "Ġexpected": 2972,
      "Ġbrought": 2973,
      "Ġimmediately": 2974,
      "Ġsubject": 2975,
      "ips": 2976,
      "Ġlang": 2977,
      "Ġartic": 2978,
      "Ġsmell": 2979,
      "ns": 2980,
      "Ġworks": 2981,
      "Ġband": 2982,
      "Ġstri": 2983,
      "Ġupd": 2984,
      "Ġfriday": 2985,
      "Ġyeah": 2986,
      "Ġbox": 2987,
      "Ġgenu": 2988,
      "dy": 2989,
      "inking": 2990,
      "Ġmer": 2991,
      "Ġsongs": 2992,
      "Ġcalling": 2993,
      "Ġamong": 2994,
      "ushing": 2995,
      "Ġdifference": 2996,
      "Ġlunch": 2997,
      "Ġshop": 2998,
      "Ġtrack": 2999,
      "Ġafternoon": 3000,
      "Ġgrowing": 3001,
      "Ġdesign": 3002,
      "Ġspot": 3003,
      "arily": 3004,
      "ograph": 3005,
      "Ġbought": 3006,
      "Ġpat": 3007,
      "Ġdirection": 3008,
      "Ġpage": 3009,
      "Ġinternet": 3010,
      "Ġtv": 3011,
      "itive": 3012,
      "Ġtruthful": 3013,
      "Ġnur": 3014,
      "Ġdest": 3015,
      "Ġfix": 3016,
      "Ġsooo": 3017,
      "Ġport": 3018,
      "Ġregular": 3019,
      "Ġoccasion": 3020,
      "Ġinteresting": 3021,
      "Ġexercise": 3022,
      "Ġsmil": 3023,
      "Ġoutraged": 3024,
      "Ġposted": 3025,
      "Ġdance": 3026,
      "Ġbelong": 3027,
      "Ġaggrav": 3028,
      "Ġver": 3029,
      "ivid": 3030,
      "Ġhandle": 3031,
      "Ġwinter": 3032,
      "Ġmentally": 3033,
      "Ġresults": 3034,
      "Ġbouncy": 3035,
      "acking": 3036,
      "Ġpassed": 3037,
      "ancy": 3038,
      "Ġterribly": 3039,
      "Ġtad": 3040,
      "Ġprevious": 3041,
      "Ġfailure": 3042,
      "itted": 3043,
      "Ġletter": 3044,
      "Ġsunday": 3045,
      "Ġlangu": 3046,
      "over": 3047,
      "Ġattract": 3048,
      "Ġrelationships": 3049,
      "andom": 3050,
      "Ġaffectionate": 3051,
      "iant": 3052,
      "Ġlab": 3053,
      "Ġattack": 3054,
      "ĠJ": 3055,
      "und": 3056,
      "Ġjes": 3057,
      "Ġsearch": 3058,
      "Ġfresh": 3059,
      "Ġride": 3060,
      "Ġenvironment": 3061,
      "Ġfalling": 3062,
      "Ġrepl": 3063,
      "Ġthroughout": 3064,
      "Ġreceived": 3065,
      "Ġflow": 3066,
      "Ġencou": 3067,
      "Ġfurious": 3068,
      "Ġoverwhelming": 3069,
      "Ġhide": 3070,
      "Ġmum": 3071,
      "Ġseries": 3072,
      "ruct": 3073,
      "Ġdisl": 3074,
      "Ġaggravated": 3075,
      "Ġcontact": 3076,
      "Ġphysical": 3077,
      "une": 3078,
      "Ġnearly": 3079,
      "Ġ2": 3080,
      "ential": 3081,
      "ives": 3082,
      "bit": 3083,
      "Ġfavorite": 3084,
      "Ġstage": 3085,
      "Ġlazy": 3086,
      "Ġchanges": 3087,
      "Ġtas": 3088,
      "Ġonto": 3089,
      "Ġolder": 3090,
      "Ġdoctor": 3091,
      "Ġhelps": 3092,
      "Ġreci": 3093,
      "osp": 3094,
      "Ġstudy": 3095,
      "Ġstronger": 3096,
      "Ġpack": 3097,
      "Ġori": 3098,
      "Ġgirlfriend": 3099,
      "Ġmeaning": 3100,
      "Ġnormally": 3101,
      "ony": 3102,
      "gg": 3103,
      "Ġapproach": 3104,
      "Ġresigned": 3105,
      "Ġpractice": 3106,
      "Ġround": 3107,
      "Ġdate": 3108,
      "Ġcover": 3109,
      "ina": 3110,
      "Ġtrain": 3111,
      "ency": 3112,
      "Ġteacher": 3113,
      "ru": 3114,
      "Ġarg": 3115,
      "eth": 3116,
      "acy": 3117,
      "Ġtalked": 3118,
      "Ġlik": 3119,
      "Ġfreed": 3120,
      "going": 3121,
      "Ġrout": 3122,
      "Ġmass": 3123,
      "Ġshake": 3124,
      "Ġcontrib": 3125,
      "Ġliterally": 3126,
      "col": 3127,
      "Ġdepression": 3128,
      "ians": 3129,
      "Ġentir": 3130,
      "Ġshopping": 3131,
      "Ġstore": 3132,
      "Ġexperienced": 3133,
      "Ġmanage": 3134,
      "Ġstudent": 3135,
      "Ġpolit": 3136,
      "Ġshows": 3137,
      "Ġchanged": 3138,
      "Ġsuggest": 3139,
      "Ġentirely": 3140,
      "Ġprofession": 3141,
      "Ġmembers": 3142,
      "ted": 3143,
      "Ġcat": 3144,
      "bing": 3145,
      "Ġurge": 3146,
      "rief": 3147,
      "Ġtaste": 3148,
      "Ġlaw": 3149,
      "Ġhosp": 3150,
      "Ġdied": 3151,
      "Ġattend": 3152,
      "Ġfilled": 3153,
      "Ġconsiderate": 3154,
      "Ġlady": 3155,
      "??": 3156,
      "Ġgut": 3157,
      "Ġshoes": 3158,
      "iving": 3159,
      "ously": 3160,
      "Ġunderstanding": 3161,
      "ache": 3162,
      "Ġfreedom": 3163,
      "Ġscream": 3164,
      "Ġblogs": 3165,
      "Ġhopefully": 3166,
      "Ġchallenge": 3167,
      "Ġemail": 3168,
      "Ġsatur": 3169,
      "Ġsem": 3170,
      "Ġmorose": 3171,
      "aked": 3172,
      "Ġlarge": 3173,
      "Ġbecame": 3174,
      "Ġhimself": 3175,
      "Ġstanding": 3176,
      "Ġridic": 3177,
      "Ġcollect": 3178,
      "Ġwhine": 3179,
      "Ġvicious": 3180,
      "Ġunivers": 3181,
      "Ġmentioned": 3182,
      "Ġest": 3183,
      "Ġactions": 3184,
      "Ġvac": 3185,
      "ery": 3186,
      "ese": 3187,
      "Ġsorrow": 3188,
      "Ġsilly": 3189,
      "Ġperfectly": 3190,
      "Ġstar": 3191,
      "Ġgoo": 3192,
      "ains": 3193,
      "Ġten": 3194,
      "Ġdiscuss": 3195,
      "Ġenglish": 3196,
      "Ġtable": 3197,
      "Ġcos": 3198,
      "Ġagree": 3199,
      "Ġparts": 3200,
      "Ġstruggling": 3201,
      "Ġpen": 3202,
      "Ġrepressed": 3203,
      "Ġthro": 3204,
      "Ġshall": 3205,
      "Ġbath": 3206,
      "een": 3207,
      "ball": 3208,
      "ises": 3209,
      "Ġrole": 3210,
      "Ġcop": 3211,
      "ison": 3212,
      "Ġgoal": 3213,
      "Ġmonday": 3214,
      "Ġmessage": 3215,
      "Ġjesus": 3216,
      "Ġrepe": 3217,
      "Ġgym": 3218,
      "aim": 3219,
      "Ġterm": 3220,
      "Ġrespond": 3221,
      "Ġteaching": 3222,
      "ify": 3223,
      "Ġbetrayed": 3224,
      "Ġsett": 3225,
      "Ġadult": 3226,
      "love": 3227,
      "atisf": 3228,
      "alled": 3229,
      "Ġfurther": 3230,
      "Ġworkout": 3231,
      "wise": 3232,
      "ashion": 3233,
      "Ġfollowing": 3234,
      "Ġpregnancy": 3235,
      "Ġindivid": 3236,
      "Ġculture": 3237,
      "loy": 3238,
      "Ġprin": 3239,
      "Ġrese": 3240,
      "Ġplans": 3241,
      "Ġphoto": 3242,
      "cles": 3243,
      "Ġneur": 3244,
      "Ġreflect": 3245,
      "Ġindecis": 3246,
      "riage": 3247,
      "ication": 3248,
      "Ġtight": 3249,
      "Ġglass": 3250,
      "ution": 3251,
      "lex": 3252,
      "leep": 3253,
      "Ġaspect": 3254,
      "Ġpassion": 3255,
      "Ġblue": 3256,
      "Ġenerg": 3257,
      "Ġservice": 3258,
      "Ġbright": 3259,
      "Ġinvolved": 3260,
      "Ġhospital": 3261,
      "Ġmod": 3262,
      "Ġadmired": 3263,
      "Ġobviously": 3264,
      "Ġcrit": 3265,
      "Ġhearing": 3266,
      "Ġhurts": 3267,
      "Ġhungry": 3268,
      "Ġlikely": 3269,
      "Ġwilling": 3270,
      "llow": 3271,
      "Ġsched": 3272,
      "Ġholding": 3273,
      "Ġlived": 3274,
      "Ġalar": 3275,
      "ler": 3276,
      "Ġdig": 3277,
      "Ġdecide": 3278,
      "ta": 3279,
      "Ġfashion": 3280,
      "Ġdrop": 3281,
      "Ġforgive": 3282,
      "Ġindecisive": 3283,
      "Ġunable": 3284,
      "Ġincreas": 3285,
      "Ġrandom": 3286,
      "Ġrelig": 3287,
      "Ġending": 3288,
      "Ġwedding": 3289,
      "Ġtrouble": 3290,
      "....": 3291,
      "Ġnights": 3292,
      "Ġpieces": 3293,
      "onse": 3294,
      "Ġloves": 3295,
      "ability": 3296,
      "Ġdriving": 3297,
      "ulf": 3298,
      "Ġaccomplish": 3299,
      "Ġpsy": 3300,
      "Ġfault": 3301,
      "Ġexcit": 3302,
      "Ġhandsome": 3303,
      "Ġease": 3304,
      "Ġcompet": 3305,
      "Ġcup": 3306,
      "Ġconscious": 3307,
      "Ġstaying": 3308,
      "Ġcomplain": 3309,
      "Ġsimilar": 3310,
      "ev": 3311,
      "Ġtimid": 3312,
      "athy": 3313,
      "Ġcreated": 3314,
      "Ġdear": 3315,
      "Ġspeci": 3316,
      "Ġaut": 3317,
      "Ġstreet": 3318,
      "ai": 3319,
      "Ġrecord": 3320,
      "light": 3321,
      "uff": 3322,
      "Ġitem": 3323,
      "Ġindividual": 3324,
      "Ġmill": 3325,
      "Ġgrat": 3326,
      "Ġmarried": 3327,
      "Ġbased": 3328,
      "Ġmoved": 3329,
      "Ġcapt": 3330,
      "Ġoverly": 3331,
      "Ġcamer": 3332,
      "Ġsaturday": 3333,
      "Ġchocol": 3334,
      "cking": 3335,
      "Ġreact": 3336,
      "iction": 3337,
      "now": 3338,
      "Ġsize": 3339,
      "Ġasleep": 3340,
      "Ġfinal": 3341,
      "Ġslut": 3342,
      "Ġinterested": 3343,
      "Ġgames": 3344,
      "Ġris": 3345,
      "rap": 3346,
      "Ġinspir": 3347,
      "Ġdrinking": 3348,
      "Ġattitude": 3349,
      "Ġeventually": 3350,
      "Ġhistory": 3351,
      "Ġoverall": 3352,
      "Ġboo": 3353,
      "Ġran": 3354,
      "Ġrock": 3355,
      "Ġident": 3356,
      "Ġaction": 3357,
      "Ġtreas": 3358,
      "Ġtherefore": 3359,
      "just": 3360,
      "Ġelect": 3361,
      "Ġridiculous": 3362,
      "Ġfly": 3363,
      "Ġcust": 3364,
      "Ġchoices": 3365,
      "Ġplus": 3366,
      "Ġembr": 3367,
      "Ġord": 3368,
      "Ġheat": 3369,
      "Ġresponse": 3370,
      "rop": 3371,
      "Ġbarely": 3372,
      "iver": 3373,
      "Ġforce": 3374,
      "Ġauthor": 3375,
      "Ġwast": 3376,
      "Ġneglectful": 3377,
      "Ġenraged": 3378,
      "uce": 3379,
      "Ġcross": 3380,
      "Ġachieve": 3381,
      "Ġsore": 3382,
      "vest": 3383,
      "Ġunk": 3384,
      "Ġshame": 3385,
      "Ġnobody": 3386,
      "Ġnatural": 3387,
      "ex": 3388,
      "Ġfire": 3389,
      "ighb": 3390,
      "Ġwhiney": 3391,
      "Ġbull": 3392,
      "Ġepis": 3393,
      "Ġgt": 3394,
      "Ġneck": 3395,
      "Ġtwe": 3396,
      "Ġtiny": 3397,
      "Ġble": 3398,
      "Ġund": 3399,
      "Ġfans": 3400,
      "Ġsomebody": 3401,
      "Ġneighb": 3402,
      "Ġgreen": 3403,
      "enty": 3404,
      "Ġess": 3405,
      "Ġgard": 3406,
      "Ġspite": 3407,
      "Ġexcitement": 3408,
      "Ġfell": 3409,
      "Ġpretend": 3410,
      "Ġesc": 3411,
      "Ġimage": 3412,
      "Ġoutgoing": 3413,
      "hy": 3414,
      "aching": 3415,
      "Ġawake": 3416,
      "Ġ1": 3417,
      "Ġbike": 3418,
      "Ġpound": 3419,
      "Ġhey": 3420,
      "Ġheld": 3421,
      "Ġepisod": 3422,
      "Ġnote": 3423,
      "Ġheavy": 3424,
      "Ġcomb": 3425,
      "ett": 3426,
      "Ġbasically": 3427,
      "par": 3428,
      "tern": 3429,
      "Ġcost": 3430,
      "Ġclearly": 3431,
      "Ġlanguage": 3432,
      "Ġrub": 3433,
      "Ġmarriage": 3434,
      "Ġfingers": 3435,
      "Ġdeg": 3436,
      "Ġshower": 3437,
      "vies": 3438,
      "Ġterms": 3439,
      "Ġmiles": 3440,
      "Ġmental": 3441,
      "Ġbree": 3442,
      "mber": 3443,
      "Ġlocal": 3444,
      "Ġalb": 3445,
      "Ġtotal": 3446,
      "Ġotherwise": 3447,
      "Ġeasier": 3448,
      "Ġphotograph": 3449,
      "Ġchocolate": 3450,
      "Ġbother": 3451,
      "Ġbatt": 3452,
      "Ġdiet": 3453,
      "Ġpained": 3454,
      "Ġsatisf": 3455,
      "Ġjournal": 3456,
      "ceed": 3457,
      "Ġanywhere": 3458,
      "Ġhers": 3459,
      "ley": 3460,
      "Ġmater": 3461,
      "Ġmovies": 3462,
      "Ġpeoples": 3463,
      "Ġsite": 3464,
      "Ġsand": 3465,
      "urs": 3466,
      "Ġresearch": 3467,
      "Ġcustom": 3468,
      "Ġskills": 3469,
      "Ġamerican": 3470,
      "Ġneurotic": 3471,
      "Ġdrug": 3472,
      "Ġtreated": 3473,
      "Ġclasses": 3474,
      "Ġrev": 3475,
      "Ġtill": 3476,
      "Ġdeb": 3477,
      "Ġfearless": 3478,
      "Ġther": 3479,
      "Ġcrow": 3480,
      "Ġmatch": 3481,
      "aster": 3482,
      "Ġclim": 3483,
      "Ġinterview": 3484,
      "Ġcoo": 3485,
      "Ġpatient": 3486,
      "Ġshoot": 3487,
      "Ġvalue": 3488,
      "Ġcolour": 3489,
      "Ġsta": 3490,
      "Ġgoals": 3491,
      "sc": 3492,
      "Ġshut": 3493,
      "Ġtopic": 3494,
      "inely": 3495,
      "!!!": 3496,
      "Ġsel": 3497,
      "ator": 3498,
      "Ġnone": 3499,
      "Ġafterwards": 3500,
      "Ġopinion": 3501,
      "Ġfol": 3502,
      "Ġcand": 3503,
      "Ġenth": 3504,
      "Ġfield": 3505,
      "ĠR": 3506,
      "onic": 3507,
      "Ġlips": 3508,
      "Ġdecisions": 3509,
      "fl": 3510,
      "Ġlif": 3511,
      "ugh": 3512,
      "Ġache": 3513,
      "por": 3514,
      "Ġshirt": 3515,
      "Ġdepend": 3516,
      "Ġintro": 3517,
      "lict": 3518,
      "Ġhea": 3519,
      "Ġgraceful": 3520,
      "ior": 3521,
      "Ġtea": 3522,
      "Ġprojects": 3523,
      "Ġfulf": 3524,
      "back": 3525,
      "ipped": 3526,
      "dom": 3527,
      "ires": 3528,
      "Ġje": 3529,
      "Ġbrand": 3530,
      "Ġloud": 3531,
      "Ġcircum": 3532,
      "Ġpartner": 3533,
      "Ġwaking": 3534,
      "ching": 3535,
      "Ġmedia": 3536,
      "iff": 3537,
      "reen": 3538,
      "ky": 3539,
      "Ġwindow": 3540,
      "Ġchose": 3541,
      "Ġgover": 3542,
      "Ġsweat": 3543,
      "Ġspring": 3544,
      "Ġuniversity": 3545,
      "Ġhighly": 3546,
      "airs": 3547,
      "ization": 3548,
      "Ġbunch": 3549,
      "Ġrar": 3550,
      "Ġprefer": 3551,
      "Ġice": 3552,
      "Ġsave": 3553,
      "Ġaccount": 3554,
      "Ġhadnt": 3555,
      "Ġplayed": 3556,
      "comm": 3557,
      "Ġedge": 3558,
      "Ġconsidering": 3559,
      "Ġthus": 3560,
      "Ġfellow": 3561,
      "Ġyog": 3562,
      "Ġplanning": 3563,
      "Ġshowing": 3564,
      "Ġgratitude": 3565,
      "Ġmothers": 3566,
      "Ġresponsibility": 3567,
      "Ġsour": 3568,
      "Ġchat": 3569,
      "Ġworst": 3570,
      "Ġkeeps": 3571,
      "Ġrarely": 3572,
      "Ġdealing": 3573,
      "Ġversion": 3574,
      "Ġorigin": 3575,
      "Ġconfess": 3576,
      "Ġfloor": 3577,
      "Ġgenuinely": 3578,
      "Ġallowing": 3579,
      "Ġgods": 3580,
      "Ġmag": 3581,
      "apped": 3582,
      "Ġreport": 3583,
      "Ġquality": 3584,
      "Ġgiggly": 3585,
      "Ġsky": 3586,
      "Ġartist": 3587,
      "Ġcircumst": 3588,
      "Ġheight": 3589,
      "Ġpity": 3590,
      "idays": 3591,
      "Ġbelief": 3592,
      "itchen": 3593,
      "Ġslutty": 3594,
      "gered": 3595,
      "Ġcompared": 3596,
      "Ġcycle": 3597,
      "Ġdut": 3598,
      "Ġgrown": 3599,
      "Ġapparent": 3600,
      "Ġscene": 3601,
      "Ġmr": 3602,
      "Ġdun": 3603,
      "Ġchick": 3604,
      "Ġnovel": 3605,
      "Ġben": 3606,
      "Ġadvice": 3607,
      "Ġult": 3608,
      "Ġsix": 3609,
      "ched": 3610,
      "Ġkitchen": 3611,
      "Ġgovern": 3612,
      "Ġlets": 3613,
      "Ġproducts": 3614,
      "Ġfort": 3615,
      "Ġalbum": 3616,
      "Ġefforts": 3617,
      "ĠE": 3618,
      "Ġthinks": 3619,
      "Ġheaven": 3620,
      "Ġsorts": 3621,
      "zz": 3622,
      "Ġcloser": 3623,
      "ana": 3624,
      "Ġpurs": 3625,
      "Ġfulfill": 3626,
      "Ġhurting": 3627,
      "Ġheadache": 3628,
      "Ġbreeze": 3629,
      "Ġnap": 3630,
      "iliar": 3631,
      "uit": 3632,
      "Ġack": 3633,
      "anqu": 3634,
      "Ġscr": 3635,
      "Ġjudge": 3636,
      "Ġthroat": 3637,
      "Ġharder": 3638,
      "Ġbuying": 3639,
      "Ġpurch": 3640,
      "here": 3641,
      "Ġbalance": 3642,
      "Ġthird": 3643,
      "Ġinvest": 3644,
      "Ġcorner": 3645,
      "Ġwash": 3646,
      "Ġvol": 3647,
      "Ġborn": 3648,
      "Ġcried": 3649,
      "Ġate": 3650,
      "Ġbud": 3651,
      "Ġjoh": 3652,
      "Ġmile": 3653,
      "Ġcrowd": 3654,
      "Ġdism": 3655,
      "Ġparticip": 3656,
      "ipping": 3657,
      "aly": 3658,
      "Ġcamera": 3659,
      "Ġsci": 3660,
      "Ġrecomm": 3661,
      "Ġimprove": 3662,
      "Ġsnow": 3663,
      "Ġlying": 3664,
      "Ġgrab": 3665,
      "overed": 3666,
      "Ġaband": 3667,
      "Ġactual": 3668,
      "Ġsugar": 3669,
      "ey": 3670,
      "Ġmas": 3671,
      "Ġeverybody": 3672,
      "inct": 3673,
      "Ġclub": 3674,
      "thy": 3675,
      "Ġappreciated": 3676,
      "Ġvag": 3677,
      "Ġpainting": 3678,
      "Ġrecall": 3679,
      "Ġwarmth": 3680,
      "Ġaccomplished": 3681,
      "Ġignore": 3682,
      "Ġacknow": 3683,
      "fast": 3684,
      "Ġdefect": 3685,
      "Ġencourage": 3686,
      "Ġoffic": 3687,
      "ground": 3688,
      "Ġchanging": 3689,
      "Ġoutfit": 3690,
      "aging": 3691,
      "fo": 3692,
      "nes": 3693,
      "Ġshared": 3694,
      "Ġpotential": 3695,
      "Ġspeaking": 3696,
      "Ġrelief": 3697,
      "Ġmixed": 3698,
      "atively": 3699,
      "Ġshot": 3700,
      "Ġmirror": 3701,
      "Ġhardly": 3702,
      "Ġslept": 3703,
      "Ġtough": 3704,
      "Ġcream": 3705,
      "iment": 3706,
      "Ġrecommend": 3707,
      "Ġcreating": 3708,
      "Ġmemory": 3709,
      "urity": 3710,
      "Ġrecent": 3711,
      "Ġfrequ": 3712,
      "Ġsexual": 3713,
      "Ġaudience": 3714,
      "rupt": 3715,
      "Ġpride": 3716,
      "Ġdry": 3717,
      "Ġinner": 3718,
      "Ġmeal": 3719,
      "oooo": 3720,
      "Ġtool": 3721,
      "Ġforced": 3722,
      "Ġadded": 3723,
      "Ġexperiencing": 3724,
      "Ġprovide": 3725,
      "ners": 3726,
      "Ġweve": 3727,
      "Ġspan": 3728,
      "Ġjoin": 3729,
      "Ġvent": 3730,
      "logy": 3731,
      "Ġblame": 3732,
      "Ġrob": 3733,
      "Ġwriter": 3734,
      "giving": 3735,
      "Ġemploy": 3736,
      "Ġsav": 3737,
      "Ġshouldn": 3738,
      "Ġstat": 3739,
      "aur": 3740,
      "ences": 3741,
      "Ġju": 3742,
      "ilies": 3743,
      "Ġpicked": 3744,
      "Ġhi": 3745,
      "gers": 3746,
      "min": 3747,
      "Ġturning": 3748,
      "Ġbeach": 3749,
      "oms": 3750,
      "Ġstarts": 3751,
      "Ġwit": 3752,
      "Ġcommit": 3753,
      "Ġconstant": 3754,
      "Ġremain": 3755,
      "Ġforgot": 3756,
      "Ġdefective": 3757,
      "Ġtranqu": 3758,
      "Ġincluding": 3759,
      "Ġgrew": 3760,
      "Ġmember": 3761,
      "Ġstrangely": 3762,
      "Ġcouch": 3763,
      "uing": 3764,
      "Ġmal": 3765,
      "ites": 3766,
      "Ġsuck": 3767,
      "Ġfamilies": 3768,
      "Ġbuilding": 3769,
      "Ġindeed": 3770,
      "Ġbutter": 3771,
      "Ġsam": 3772,
      "ilt": 3773,
      "Ġlift": 3774,
      "Ġholidays": 3775,
      "Ġfal": 3776,
      "Ġyoga": 3777,
      "inge": 3778,
      "Ġswim": 3779,
      "Ġherself": 3780,
      "Ġmild": 3781,
      "Ġanswers": 3782,
      "Ġobl": 3783,
      "Ġreminded": 3784,
      "icated": 3785,
      "Ġchildhood": 3786,
      "ples": 3787,
      "Ġly": 3788,
      "Ġchos": 3789,
      "Ġreceive": 3790,
      "Ġbehavior": 3791,
      "Ġdro": 3792,
      "Ġkey": 3793,
      "Ġflaw": 3794,
      "Ġchristian": 3795,
      "Ġtherap": 3796,
      "Ġtyping": 3797,
      "Ġaccident": 3798,
      "Ġwaste": 3799,
      "Ġdying": 3800,
      "Ġbear": 3801,
      "Ġactiv": 3802,
      "Ġbreakfast": 3803,
      "Ġgarden": 3804,
      "lu": 3805,
      "Ġeffects": 3806,
      "Ġwine": 3807,
      "Ġdread": 3808,
      "ĠIt": 3809,
      "Ġhat": 3810,
      "Ġwhose": 3811,
      "protect": 3812,
      "Ġexper": 3813,
      "Ġmotivated": 3814,
      "Ġpark": 3815,
      "Ġstayed": 3816,
      "Ġgar": 3817,
      "Ġappoint": 3818,
      "Ġnet": 3819,
      "Ġyouve": 3820,
      "Ġuniverse": 3821,
      "Ġsurrounded": 3822,
      "ob": 3823,
      "Ġtrad": 3824,
      "elled": 3825,
      "Ġprepared": 3826,
      "wing": 3827,
      "ann": 3828,
      "Ġarm": 3829,
      "Ġrelate": 3830,
      "Ġchosen": 3831,
      "Ġarri": 3832,
      "Ġeducation": 3833,
      "Ġacting": 3834,
      "Ġproperly": 3835,
      "Ġcheer": 3836,
      "Ġsight": 3837,
      "oned": 3838,
      "Ġpm": 3839,
      "Ġpromise": 3840,
      "Ġreached": 3841,
      "Ġshift": 3842,
      "days": 3843,
      "Ġsac": 3844,
      "Ġya": 3845,
      "Ġbreathe": 3846,
      "Ġbird": 3847,
      "ury": 3848,
      "Ġinit": 3849,
      "Ġfolks": 3850,
      "ship": 3851,
      "Ġunprotect": 3852,
      "Ġimages": 3853,
      "Ġfigured": 3854,
      "Ġunprotected": 3855,
      "ision": 3856,
      "Ġconflict": 3857,
      "Ġconsum": 3858,
      "Ġteachers": 3859,
      "Ġgifts": 3860,
      "Ġtells": 3861,
      "Ġstudying": 3862,
      "Ġsepar": 3863,
      "hol": 3864,
      "uccess": 3865,
      "Ġsaf": 3866,
      "Ġfighting": 3867,
      "Ġschedule": 3868,
      "Ġbabies": 3869,
      "Ġwild": 3870,
      "centr": 3871,
      "Ġdish": 3872,
      "Ġtechn": 3873,
      "Ġsport": 3874,
      "Ġscen": 3875,
      "Ġdrag": 3876,
      "Ġunsuccess": 3877,
      "Ġreaction": 3878,
      "Ġstaff": 3879,
      "Ġcaused": 3880,
      "Ġvacation": 3881,
      "Ġdespair": 3882,
      "night": 3883,
      "Ġgradu": 3884,
      "Ġforgotten": 3885,
      "oss": 3886,
      "Ġangered": 3887,
      "Ġfinan": 3888,
      "'ll": 3889,
      "Ġpace": 3890,
      "Ġalot": 3891,
      "Ġrelease": 3892,
      "Ġperspect": 3893,
      "eness": 3894,
      "Ġpair": 3895,
      "icip": 3896,
      "Ġrealised": 3897,
      "Ġdrunk": 3898,
      "Ġmaint": 3899,
      "Ġunsuccessful": 3900,
      "Ġmark": 3901,
      "tw": 3902,
      "Ġhanging": 3903,
      "wor": 3904,
      "Ġpu": 3905,
      "Ġdistance": 3906,
      "Ġflu": 3907,
      "Ġbringing": 3908,
      "Ġexcuse": 3909,
      "Ġgovernment": 3910,
      "Ġshape": 3911,
      "Ġclient": 3912,
      "Ġpleasure": 3913,
      "Ġnause": 3914,
      "Ġjer": 3915,
      "Ġprofessional": 3916,
      "Ġcuz": 3917,
      "Ġdoll": 3918,
      "Ġfailed": 3919,
      "kets": 3920,
      "Ġcared": 3921,
      "Ġconcentr": 3922,
      "Ġclaim": 3923,
      "Ġcondition": 3924,
      "Ġtranquil": 3925,
      "Ġarrived": 3926,
      "Ġfrank": 3927,
      "Ġdetails": 3928,
      "Ġlesson": 3929,
      "Ġlaughing": 3930,
      "Ġthanksgiving": 3931,
      "Ġmount": 3932,
      "Ġyounger": 3933,
      "Ġalarmed": 3934,
      "Ġcred": 3935,
      "Ġpatter": 3936,
      "Ġradiant": 3937,
      "ris": 3938,
      "load": 3939,
      "Ġanticip": 3940,
      "Ġgain": 3941,
      "ĠU": 3942,
      "Ġru": 3943,
      "roll": 3944,
      "Ġcancer": 3945,
      "Ġnut": 3946,
      "lend": 3947,
      "vert": 3948,
      "Ġanimals": 3949,
      "Ġwishing": 3950,
      "old": 3951,
      "Ġtree": 3952,
      "Ġconc": 3953,
      "Ġpulled": 3954,
      "Ġgay": 3955,
      "Ġcorrect": 3956,
      "Ġsensation": 3957,
      "Ġopinions": 3958,
      "Ġcast": 3959,
      "Ġpin": 3960,
      "Ġfinger": 3961,
      "Ġdece": 3962,
      "Ġconnected": 3963,
      "Ġtreatment": 3964,
      "Ġ#": 3965,
      "ees": 3966,
      "Ġexpectations": 3967,
      "Ġepisode": 3968,
      "Ġstret": 3969,
      "Ġpoints": 3970,
      "vol": 3971,
      "Ġcircumstances": 3972,
      "Ġoppos": 3973,
      "Ġdisgust": 3974,
      "Ġstood": 3975,
      "Ġarticle": 3976,
      "Ġenergized": 3977,
      "Ġbasis": 3978,
      "Ġsensitive": 3979,
      "Ġconcerned": 3980,
      "Ġperformance": 3981,
      "Ġcards": 3982,
      "ches": 3983,
      "Ġvarious": 3984,
      "Ġfamiliar": 3985,
      "itation": 3986,
      "ider": 3987,
      "ummy": 3988,
      "Ġharm": 3989,
      "Ġlikes": 3990,
      "ension": 3991,
      "Ġlu": 3992,
      "Ġcro": 3993,
      "othing": 3994,
      "aint": 3995,
      "Ġareas": 3996,
      "antage": 3997,
      "Ġtwice": 3998,
      "Ġpaint": 3999,
      "Ġmoms": 4000,
      "Ġheaded": 4001,
      "Ġbreast": 4002,
      "Ġplanned": 4003,
      "Ġfocused": 4004,
      "Ġencount": 4005,
      "Ġjudged": 4006,
      "Ġtask": 4007,
      "ium": 4008,
      "yy": 4009,
      "bered": 4010,
      "ended": 4011,
      "Ġbelly": 4012,
      "Ġpaid": 4013,
      "Ġjohn": 4014,
      "Ġgrief": 4015,
      "Ġrelated": 4016,
      "Ġfrustration": 4017,
      "Ġsteps": 4018,
      "Ġcontinued": 4019,
      "Ġwimp": 4020,
      "Ġexample": 4021,
      "port": 4022,
      "Ġbrings": 4023,
      "Ġapartment": 4024,
      "key": 4025,
      "Ġboard": 4026,
      "Ġindul": 4027,
      "olve": 4028,
      "Ġcommon": 4029,
      "Ġswear": 4030,
      "Ġsignific": 4031,
      "Ġlt": 4032,
      "Ġmanner": 4033,
      "Ġimpact": 4034,
      "Ġspiritual": 4035,
      "Ġ(": 4036,
      "str": 4037,
      "Ġaccess": 4038,
      "Ġrepres": 4039,
      "Ġcapable": 4040,
      "Ġroutine": 4041,
      "Ġembrace": 4042,
      "for": 4043,
      "Ġperspective": 4044,
      "Ġcru": 4045,
      "Ġmuscles": 4046,
      "Ġfeelin": 4047,
      "Ġcleaning": 4048,
      "Ġfalse": 4049,
      "Ġsession": 4050,
      "Ġneither": 4051,
      "Ġprove": 4052,
      "ka": 4053,
      "ules": 4054,
      "Ġsexy": 4055,
      "Ġaren": 4056,
      "Ġscreen": 4057,
      "Ġdisli": 4058,
      "Ġreve": 4059,
      "Ġyoull": 4060,
      "urally": 4061,
      "Ġmach": 4062,
      "Ġpassing": 4063,
      "Ġincreasingly": 4064,
      "Ġpump": 4065,
      "ference": 4066,
      "Ġidiot": 4067,
      "Ġaside": 4068,
      "Ġfavour": 4069,
      "Ġupdate": 4070,
      "Ġge": 4071,
      "Ġeverywhere": 4072,
      "Ġbottom": 4073,
      "Ġdegree": 4074,
      "Ġbutton": 4075,
      "Ġchem": 4076,
      "Ġgotta": 4077,
      "soci": 4078,
      "Ġtreasured": 4079,
      "Ġduty": 4080,
      "mark": 4081,
      "Ġweb": 4082,
      "ands": 4083,
      "Ġmult": 4084,
      "Ġsurf": 4085,
      "Ġultim": 4086,
      "zing": 4087,
      "Ġna": 4088,
      "umbled": 4089,
      "Ġchap": 4090,
      "Ġcloud": 4091,
      "Ġmovement": 4092,
      "Ġunb": 4093,
      "Ġgold": 4094,
      "Ġwond": 4095,
      "inary": 4096,
      "icing": 4097,
      "Ġdiscovered": 4098,
      "Ġcomplaining": 4099,
      "ato": 4100,
      "Ġaltern": 4101,
      "ters": 4102,
      "Ġflat": 4103,
      "Ġcares": 4104,
      "Ġreader": 4105,
      "Ġshad": 4106,
      "aming": 4107,
      "Ġburden": 4108,
      "Ġplain": 4109,
      "Ġmakeup": 4110,
      "Ġguest": 4111,
      "Ġpowerful": 4112,
      "mates": 4113,
      "Ġcore": 4114,
      "iters": 4115,
      "Ġload": 4116,
      "Ġspiteful": 4117,
      "Ġjobs": 4118,
      "Ġinstantly": 4119,
      "fits": 4120,
      "Ġsetting": 4121,
      "Ġhall": 4122,
      "Ġquit": 4123,
      "asm": 4124,
      "Ġamerica": 4125,
      "val": 4126,
      "Ġdepth": 4127,
      "Ġattach": 4128,
      "Ġmission": 4129,
      "Ġdrama": 4130,
      "Ġwelcome": 4131,
      "Ġapologize": 4132,
      "Ġargum": 4133,
      "ii": 4134,
      "iven": 4135,
      "coming": 4136,
      "Ġindepend": 4137,
      "Ġintention": 4138,
      "Ġmaterial": 4139,
      "Ġwebs": 4140,
      "Ġbecomes": 4141,
      "Ġindust": 4142,
      "Ġfreak": 4143,
      "Ġom": 4144,
      "ased": 4145,
      "Ġvile": 4146,
      "Ġentry": 4147,
      "Ġcheated": 4148,
      "Ġprior": 4149,
      "Ġselect": 4150,
      "Ġdismayed": 4151,
      "ring": 4152,
      "Ġtag": 4153,
      "Ġadvantage": 4154,
      "Ġmoder": 4155,
      "idered": 4156,
      "Ġobser": 4157,
      "Ġsuffer": 4158,
      "Ġexistence": 4159,
      "hile": 4160,
      "Ġlibr": 4161,
      "Ġserve": 4162,
      "Ġopened": 4163,
      "gery": 4164,
      "Ġwand": 4165,
      "Ġbill": 4166,
      "Ġwhis": 4167,
      "Ġbackground": 4168,
      "Ġdecor": 4169,
      "Ġfoods": 4170,
      "Ġsmooth": 4171,
      "Ġenter": 4172,
      "Ġmotivation": 4173,
      "Ġrush": 4174,
      "Ġvib": 4175,
      "Ġfunction": 4176,
      "Ġinspiration": 4177,
      "Ġprayer": 4178,
      "Ġgrade": 4179,
      "Ġblah": 4180,
      "Ġunwanted": 4181,
      "Ġpushing": 4182,
      "Ġcraving": 4183,
      "Ġrecip": 4184,
      "ube": 4185,
      "Ġfreaking": 4186,
      "Ġrecognize": 4187,
      "Ġimposs": 4188,
      "ĠThe": 4189,
      "Ġshoulder": 4190,
      "Ġdesperately": 4191,
      "Ġwimpy": 4192,
      "Ġcow": 4193,
      "Ġmeas": 4194,
      "Ġsucks": 4195,
      "Ġannoying": 4196,
      "Ġmistake": 4197,
      "Ġactivities": 4198,
      "Ġpaying": 4199,
      "ront": 4200,
      "iest": 4201,
      "Ġsurprise": 4202,
      "Ġintrod": 4203,
      "Ġdispl": 4204,
      "Ġsocially": 4205,
      "Ġbenevol": 4206,
      "omb": 4207,
      "ption": 4208,
      "Ġconsidered": 4209,
      "Ġsinging": 4210,
      "Ġpubl": 4211,
      "Ġworrying": 4212,
      "Ġsmiling": 4213,
      "Ġapply": 4214,
      "Ġrealise": 4215,
      "itions": 4216,
      "asp": 4217,
      "amb": 4218,
      "Ġwis": 4219,
      "Ġwhe": 4220,
      "Ġourselves": 4221,
      "Ġequally": 4222,
      "under": 4223,
      "Ġjack": 4224,
      "Ġobject": 4225,
      "Ġpanic": 4226,
      "ival": 4227,
      "Ġbank": 4228,
      "ipp": 4229,
      "den": 4230,
      "izz": 4231,
      "Ġobs": 4232,
      "Ġdar": 4233,
      "using": 4234,
      "Ġinteract": 4235,
      "appy": 4236,
      "Ġconversations": 4237,
      "Ġsea": 4238,
      "rous": 4239,
      "Ġjap": 4240,
      "ensely": 4241,
      "Ġzone": 4242,
      "Ġopportun": 4243,
      "Ġmistakes": 4244,
      "Ġitems": 4245,
      "Ġinflu": 4246,
      "Ġpersonality": 4247,
      "Ġdesperate": 4248,
      "ropri": 4249,
      "Ġtom": 4250,
      "Ġdiscover": 4251,
      "Ġincredible": 4252,
      "Ġremembered": 4253,
      "Ġillness": 4254,
      "Ġsympt": 4255,
      "Ġtemper": 4256,
      "Ġpages": 4257,
      "oke": 4258,
      "Ġdating": 4259,
      "Ġspl": 4260,
      "Ġrestaur": 4261,
      "Ġlip": 4262,
      "Ġunderstood": 4263,
      "Ġconsist": 4264,
      "Ġclosed": 4265,
      "order": 4266,
      "Ġnic": 4267,
      "Ġbelow": 4268,
      "Ġopening": 4269,
      "Ġavail": 4270,
      "Ġpred": 4271,
      "Ġyouth": 4272,
      "Ġbenevolent": 4273,
      "Ġwriters": 4274,
      "Ġcontract": 4275,
      "ibilities": 4276,
      "Ġassoci": 4277,
      "Ġconcept": 4278,
      "Ġlessons": 4279,
      "Ġlonel": 4280,
      "uely": 4281,
      "sequ": 4282,
      "Ġawhile": 4283,
      "Ġwerent": 4284,
      "Ġexams": 4285,
      "Ġcompassion": 4286,
      "Ġdisliked": 4287,
      "Ġsurgery": 4288,
      "Ġreply": 4289,
      "Ġhyp": 4290,
      "Ġsorrowful": 4291,
      "uced": 4292,
      "Ġblogger": 4293,
      "Ġwitness": 4294,
      "Ġdat": 4295,
      "Ġplenty": 4296,
      "Ġbow": 4297,
      "Ġgained": 4298,
      "Ġmainly": 4299,
      "Ġlen": 4300,
      "Ġdesk": 4301,
      "Ġtempt": 4302,
      "Ġmail": 4303,
      "Ġcourage": 4304,
      "Ġprice": 4305,
      "Ġfed": 4306,
      "style": 4307,
      "Ġtrick": 4308,
      "Ġmedic": 4309,
      "Ġbreathing": 4310,
      "Ġtweet": 4311,
      "gue": 4312,
      "Ġanybody": 4313,
      "Ġpainful": 4314,
      "Ġcalls": 4315,
      "pet": 4316,
      "Ġwhil": 4317,
      "imin": 4318,
      "Ġopportunities": 4319,
      "Ġsurv": 4320,
      "Ġadventure": 4321,
      "Ġoblig": 4322,
      "phere": 4323,
      "idge": 4324,
      "Ġjapan": 4325,
      "Ġfac": 4326,
      "any": 4327,
      "Ġexciting": 4328,
      "sides": 4329,
      "Ġhole": 4330,
      "Ġcher": 4331,
      "Ġhearts": 4332,
      "Ġteenager": 4333,
      "Ġfro": 4334,
      "Ġlines": 4335,
      "Ġspeed": 4336,
      "Ġbottle": 4337,
      "Ġloneliness": 4338,
      "Ġdepart": 4339,
      "Ġapparently": 4340,
      "Ġsne": 4341,
      "Ġfears": 4342,
      "shine": 4343,
      "onnect": 4344,
      "Ġmagic": 4345,
      "Ġartists": 4346,
      "Ġreturned": 4347,
      "Ġgoogle": 4348,
      "'re": 4349,
      "Ġaccepting": 4350,
      "Ġpal": 4351,
      "Ġneeding": 4352,
      "cohol": 4353,
      "Ġcooking": 4354,
      "Ġtrem": 4355,
      "Ġbond": 4356,
      "Ġoccasionally": 4357,
      "eem": 4358,
      "Ġrap": 4359,
      "Ġcontem": 4360,
      "Ġrelatively": 4361,
      "Ġturns": 4362,
      "Ġsell": 4363,
      "Ġwhilst": 4364,
      "Ġnose": 4365,
      "Ġmajority": 4366,
      "Ġnecessarily": 4367,
      "Ġpink": 4368,
      "Ġnecessary": 4369,
      "rified": 4370,
      "Ġhappier": 4371,
      "Ġblock": 4372,
      "Ġou": 4373,
      "Ġtechno": 4374,
      "Ġrisk": 4375,
      "Ġthor": 4376,
      "Ġwood": 4377,
      "Ġpicking": 4378,
      "Ġatm": 4379,
      "Ġblessings": 4380,
      "Ġhigher": 4381,
      "Ġindustry": 4382,
      "Ġintense": 4383,
      "Ġoddly": 4384,
      "ech": 4385,
      "uary": 4386,
      "Ġpra": 4387,
      "Ġhabit": 4388,
      "Ġdogs": 4389,
      "Ġkinds": 4390,
      "Ġdeeper": 4391,
      "Ġoccur": 4392,
      "pic": 4393,
      "Ġjew": 4394,
      "ĠMy": 4395,
      "Ġsemester": 4396,
      "uses": 4397,
      "Ġtues": 4398,
      "Ġchair": 4399,
      "Ġstorm": 4400,
      "Ġalcohol": 4401,
      "Ġbreaking": 4402,
      "Ġcelebrate": 4403,
      "Ġoriginal": 4404,
      "Ġeverytime": 4405,
      "Ġteeth": 4406,
      "Ġchee": 4407,
      "Ġkno": 4408,
      "Ġmarath": 4409,
      "Ġcreep": 4410,
      "Ġwid": 4411,
      "Ġprim": 4412,
      "Ġwalls": 4413,
      "do": 4414,
      "Ġpants": 4415,
      "!!!!": 4416,
      "bur": 4417,
      "eling": 4418,
      "Ġswitch": 4419,
      "attered": 4420,
      "Ġexpecting": 4421,
      "Ġbattle": 4422,
      "Ġsuspect": 4423,
      "Ġspark": 4424,
      "Ġsunshine": 4425,
      "Ġbigger": 4426,
      "asty": 4427,
      "Ġhasnt": 4428,
      "Ġavailable": 4429,
      "vey": 4430,
      "Ġmaster": 4431,
      "Ġspecific": 4432,
      "oughly": 4433,
      "usi": 4434,
      "Ġfemin": 4435,
      "Ġsuic": 4436,
      "Ġmatters": 4437,
      "mon": 4438,
      "Ġbug": 4439,
      "Ġsplend": 4440,
      "Ġthurs": 4441,
      "Ġhopes": 4442,
      "Ġincluded": 4443,
      "Ġsole": 4444,
      "rics": 4445,
      "Ġbod": 4446,
      "Ġvan": 4447,
      "Ġresist": 4448,
      "Ġunique": 4449,
      "male": 4450,
      "Ġdancing": 4451,
      "Ġwasted": 4452,
      "Ġcake": 4453,
      "Ġhumorous": 4454,
      "Ġboss": 4455,
      "Ġbathroom": 4456,
      "Ġprevent": 4457,
      "Ġpetrified": 4458,
      "Ġescape": 4459,
      "Ġlud": 4460,
      "Ġsucceed": 4461,
      "Ġaspects": 4462,
      "Ġimpossible": 4463,
      "oon": 4464,
      "Ġfemale": 4465,
      "Ġnaturally": 4466,
      "son": 4467,
      "Ġhub": 4468,
      "Ġdetail": 4469,
      "Ġpounds": 4470,
      "Ġappointment": 4471,
      "ndry": 4472,
      "Ġking": 4473,
      "Ġdifferently": 4474,
      "aries": 4475,
      "Ġfaces": 4476,
      "Ġconcl": 4477,
      "osphere": 4478,
      "Ġwhos": 4479,
      "Ġprospect": 4480,
      "Ġseek": 4481,
      "Ġsurprising": 4482,
      "Ġlighter": 4483,
      "Ġfollowed": 4484,
      "Ġwednes": 4485,
      "Ġrequest": 4486,
      "mer": 4487,
      "Ġbound": 4488,
      "ndon": 4489,
      "Ġhund": 4490,
      "ron": 4491,
      "Ġappalled": 4492,
      "Ġpolitical": 4493,
      "Ġoper": 4494,
      "Ġbesides": 4495,
      "Ġring": 4496,
      "Ġcontr": 4497,
      "board": 4498,
      "Ġmillion": 4499,
      "Ġafford": 4500,
      "Ġhundred": 4501,
      "itional": 4502,
      "Ġinclude": 4503,
      "Ġpushed": 4504,
      "Ġjub": 4505,
      "iling": 4506,
      "Ġapplic": 4507,
      "anced": 4508,
      "Ġgun": 4509,
      "omin": 4510,
      "Ġhorribly": 4511,
      "Ġsatisfaction": 4512,
      "Ġpill": 4513,
      "Ġscri": 4514,
      "ox": 4515,
      "Ġbi": 4516,
      "Ġnaked": 4517,
      "Ġhealing": 4518,
      "Ġcolleag": 4519,
      "Ġsisters": 4520,
      "Ġsource": 4521,
      "Ġfacing": 4522,
      "Ġbum": 4523,
      "Ġworn": 4524,
      "Ġpraying": 4525,
      "Ġanimal": 4526,
      "Ġludic": 4527,
      "Ġmur": 4528,
      "oof": 4529,
      "Ġclar": 4530,
      "Ġsake": 4531,
      "Ġmich": 4532,
      "Ġlil": 4533,
      "Ġlies": 4534,
      "Ġtuesday": 4535,
      "entially": 4536,
      "ulate": 4537,
      "Ġlog": 4538,
      "Ġoption": 4539,
      "Ġreligion": 4540,
      "Ġends": 4541,
      "Ġaddress": 4542,
      "Ġfaster": 4543,
      "Ġregarding": 4544,
      "Ġunkn": 4545,
      "iled": 4546,
      "Ġwound": 4547,
      "Ġanti": 4548,
      "Ġdiscus": 4549,
      "avid": 4550,
      "ec": 4551,
      "Ġbash": 4552,
      "Ġdisappointment": 4553,
      "Ġpulling": 4554,
      "Ġludicrous": 4555,
      "Ġregardless": 4556,
      "aper": 4557,
      "Ġsan": 4558,
      "Ġmi": 4559,
      "Ġchill": 4560,
      "Ġmildly": 4561,
      "Ġdressed": 4562,
      "Ġbrown": 4563,
      "Ġdram": 4564,
      "Ġbenefit": 4565,
      "Ġlaid": 4566,
      "Ġcritic": 4567,
      "Ġought": 4568,
      "Ġmarathon": 4569,
      "Ġwow": 4570,
      "Ġdeli": 4571,
      "Ġliber": 4572,
      "Ġdocum": 4573,
      "Ġlaundry": 4574,
      "ĠJust": 4575,
      "Ġstatus": 4576,
      "Ġwra": 4577,
      "Ġassign": 4578,
      "ince": 4579,
      "Ġexpression": 4580,
      "Ġdoctors": 4581,
      "Ġled": 4582,
      "Ġinj": 4583,
      "Ġcoz": 4584,
      "Ġassum": 4585,
      "Ġclassroom": 4586,
      "Ġaim": 4587,
      "Ġthous": 4588,
      "Ġhiding": 4589,
      "Ġcraft": 4590,
      "vered": 4591,
      "Ġblow": 4592,
      "Ġmarket": 4593,
      "Ġcausing": 4594,
      "Ġfrankly": 4595,
      "Ġspread": 4596,
      "Ġgrowth": 4597,
      "Ġdislike": 4598,
      "Ġangel": 4599,
      "Ġsolid": 4600,
      "Ġcontribut": 4601,
      "Ġrant": 4602,
      "Ġhero": 4603,
      "Ġlifestyle": 4604,
      "Ġacknowledge": 4605,
      "Ġwednesday": 4606,
      "Ġtour": 4607,
      "Ġdestro": 4608,
      "Ġprint": 4609,
      "Ġflash": 4610,
      "Ġsplendid": 4611,
      "Ġskirt": 4612,
      "Ġsomeones": 4613,
      "Ġjeans": 4614,
      "Ġexplore": 4615,
      "Ġvaguely": 4616,
      "Ġsen": 4617,
      "ilant": 4618,
      "Ġladies": 4619,
      "jo": 4620,
      "Ġmessages": 4621,
      "ĠSt": 4622,
      "mn": 4623,
      "Ġvalid": 4624,
      "Ġbase": 4625,
      "Ġcough": 4626,
      "asing": 4627,
      "Ġcrack": 4628,
      "Ġlevels": 4629,
      "mate": 4630,
      "Ġnames": 4631,
      "Ġstaring": 4632,
      "Ġsold": 4633,
      "Ġmale": 4634,
      "olic": 4635,
      "Ġadop": 4636,
      "Ġspin": 4637,
      "Ġgroups": 4638,
      "Ġsending": 4639,
      "Ġopposite": 4640,
      "cr": 4641,
      "Ġsuit": 4642,
      "Ġhomework": 4643,
      "Ġpossibility": 4644,
      "Ġachieved": 4645,
      "Ġmour": 4646,
      "ulation": 4647,
      "Ġcha": 4648,
      "Ġhelpful": 4649,
      "ugg": 4650,
      "Ġpresident": 4651,
      "Ġexpressing": 4652,
      "Ġstatement": 4653,
      "Ġenthusi": 4654,
      "Ġmagaz": 4655,
      "Ġthursday": 4656,
      "Ġhun": 4657,
      "Ġfish": 4658,
      "Ġfrequently": 4659,
      "erv": 4660,
      "Ġsecure": 4661,
      "Ġcircle": 4662,
      "Ġdrawing": 4663,
      "Ġfont": 4664,
      "Ġward": 4665,
      "Ġshar": 4666,
      "Ġstranger": 4667,
      "Ġsafety": 4668,
      "Ġcous": 4669,
      "Ġcheese": 4670,
      "Ġevil": 4671,
      "Ġstruggled": 4672,
      "Ġfund": 4673,
      "adem": 4674,
      "Ġplanet": 4675,
      "con": 4676,
      "rs": 4677,
      "Ġ4": 4678,
      "Ġwet": 4679,
      "Ġwise": 4680,
      "rain": 4681,
      "Ġforth": 4682,
      "Ġemer": 4683,
      "Ġloose": 4684,
      "Ġtic": 4685,
      "nding": 4686,
      "Ġlondon": 4687,
      "Ġcolors": 4688,
      "Ġhahaha": 4689,
      "mar": 4690,
      "Ġseat": 4691,
      "Ġshowed": 4692,
      "Ġsecurity": 4693,
      "well": 4694,
      "Ġabuse": 4695,
      "Ġremark": 4696,
      "prise": 4697,
      "Ġsympathy": 4698,
      "Ġcarrying": 4699,
      "ssed": 4700,
      "oop": 4701,
      "Ġunex": 4702,
      "Ġdunno": 4703,
      "Ġ3": 4704,
      "Ġjoke": 4705,
      "Ġheading": 4706,
      "Ġviews": 4707,
      "Ġfever": 4708,
      "asy": 4709,
      "Ġvir": 4710,
      "Ġslip": 4711,
      "Ġrepeat": 4712,
      "Ġmut": 4713,
      "Ġban": 4714,
      "Ġacqu": 4715,
      "Ġradio": 4716,
      "Ġrules": 4717,
      "Ġresour": 4718,
      "Ġtouched": 4719,
      "Ġbookmark": 4720,
      "follow": 4721,
      "af": 4722,
      "uk": 4723,
      "Ġshoulders": 4724,
      "Ġregularly": 4725,
      "Ġcredit": 4726,
      "Ġsymptoms": 4727,
      "Ġtaught": 4728,
      "Ġpoem": 4729,
      "Ġacadem": 4730,
      "Ġfeat": 4731,
      "Ġscreaming": 4732,
      "rum": 4733,
      "Ġitll": 4734,
      "Ġstars": 4735,
      "Ġtongue": 4736,
      "Ġadding": 4737,
      "Ġchallenges": 4738,
      "Ġpsycho": 4739,
      "'ve": 4740,
      "Ġunl": 4741,
      "Ġtone": 4742,
      "ĠHappy": 4743,
      "aneously": 4744,
      "Ġreceiving": 4745,
      "Ġsilence": 4746,
      "Ġbeside": 4747,
      "Ġgaz": 4748,
      "ateg": 4749,
      "apers": 4750,
      "Ġworthy": 4751,
      "Ġsettle": 4752,
      "Ġeur": 4753,
      "Ġminor": 4754,
      "Ġcud": 4755,
      "esh": 4756,
      "Ġshout": 4757,
      "Ġplayer": 4758,
      "Ġecon": 4759,
      "Ġfortun": 4760,
      "00": 4761,
      "iveness": 4762,
      "OO": 4763,
      "vant": 4764,
      "Ġflight": 4765,
      "Ġsacri": 4766,
      "bl": 4767,
      "Ġplot": 4768,
      "Ġextent": 4769,
      "Ġovercome": 4770,
      "Ġburn": 4771,
      "Ġwebsite": 4772,
      "ada": 4773,
      "umble": 4774,
      "Ġexplained": 4775,
      "ĠYou": 4776,
      "Ġneighbor": 4777,
      "Ġbeating": 4778,
      "Ġlean": 4779,
      "Ġassume": 4780,
      "Ġannoun": 4781,
      "Ġvision": 4782,
      "Ġbub": 4783,
      "Ġhorm": 4784,
      "icked": 4785,
      "anks": 4786,
      "Ġwide": 4787,
      "Ġbones": 4788,
      "Ġol": 4789,
      "Ġriding": 4790,
      "Ġded": 4791,
      "Ġabilities": 4792,
      "Ġscary": 4793,
      "Ġresponsible": 4794,
      "Ġreveal": 4795,
      "Ġfavourite": 4796,
      "Ġultimately": 4797,
      "Ġjan": 4798,
      "Ġcock": 4799,
      "Ġmommy": 4800,
      "Ġprepare": 4801,
      "Ġcollection": 4802,
      "Ġpoet": 4803,
      "Ġtrail": 4804,
      "Ġcenter": 4805,
      "Ġdrugs": 4806,
      "Ġvolunt": 4807,
      "ram": 4808,
      "Ġpit": 4809,
      "Ġclothing": 4810,
      "Ġbegun": 4811,
      "Ġrefuse": 4812,
      "Ġscript": 4813,
      "Ġhunt": 4814,
      "Ġpool": 4815,
      "Ġconsequ": 4816,
      "Ġmaintain": 4817,
      "Ġpure": 4818,
      "Ġstare": 4819,
      "Ġthrowing": 4820,
      "Ġbloggers": 4821,
      "Ġassist": 4822,
      "Ġinvited": 4823,
      "Ġrecipe": 4824,
      "ulated": 4825,
      "Ġcharmed": 4826,
      "Ġcreativity": 4827,
      "Ġowe": 4828,
      "Ġlistened": 4829,
      "Ġnails": 4830,
      "Ġcauses": 4831,
      "Ġflying": 4832,
      "ds": 4833,
      "Ġactivity": 4834,
      "Ġdepress": 4835,
      "rest": 4836,
      "apping": 4837,
      "Ġmachine": 4838,
      "Ġjubilant": 4839,
      "Ġsadd": 4840,
      "Ġrefer": 4841,
      "nam": 4842,
      "Ġamb": 4843,
      "Ġears": 4844,
      "Ġfriendships": 4845,
      "eared": 4846,
      "Ġlect": 4847,
      "istry": 4848,
      "Ġlibrary": 4849,
      "Ġba": 4850,
      "Ġsty": 4851,
      "urance": 4852,
      "Ġsection": 4853,
      "aps": 4854,
      "Ġdecember": 4855,
      "Ġlength": 4856,
      "Ġsigh": 4857,
      "Ġclos": 4858,
      "Ġfootball": 4859,
      "ien": 4860,
      "Ġlin": 4861,
      "bal": 4862,
      "elie": 4863,
      "Ġpour": 4864,
      "Ġvia": 4865,
      "Ġah": 4866,
      "Ġmeth": 4867,
      "ker": 4868,
      "me": 4869,
      "reg": 4870,
      "verage": 4871,
      "Ġscrew": 4872,
      "icted": 4873,
      "Ġruns": 4874,
      "Ġignor": 4875,
      "Ġspoke": 4876,
      "Ġstrangers": 4877,
      "Ġling": 4878,
      "Ġspeech": 4879,
      "Ġbrothers": 4880,
      "Ġappearance": 4881,
      "Ġtechnology": 4882,
      "xx": 4883,
      "Ġphil": 4884,
      "Ġunknown": 4885,
      "Ġmac": 4886,
      "Ġstates": 4887,
      "Ġhoped": 4888,
      "Ġimpro": 4889,
      "Ġlower": 4890,
      "Ġunfair": 4891,
      "Ġphase": 4892,
      "Ġuncle": 4893,
      "sur": 4894,
      "Ġlaying": 4895,
      "Ġbout": 4896,
      "Ġbutt": 4897,
      "cket": 4898,
      "Ġexcl": 4899,
      "Ġexception": 4900,
      "Ġrage": 4901,
      "lessly": 4902,
      "Ġhumans": 4903,
      "Ġesteem": 4904,
      "Ġrepresent": 4905,
      "Ġms": 4906,
      "Ġoil": 4907,
      "Ġgh": 4908,
      "Ġperce": 4909,
      "Ġreviews": 4910,
      "Ġcombination": 4911,
      "Ġblind": 4912,
      "rom": 4913,
      "Ġdu": 4914,
      "Ġdign": 4915,
      "Ġhadn": 4916,
      "Ġburst": 4917,
      "Ġleading": 4918,
      "Ġkilled": 4919,
      "Ġatmosphere": 4920,
      "Ġchicken": 4921,
      "Ġber": 4922,
      "Ġing": 4923,
      "Ġcompar": 4924,
      "Ġinsince": 4925,
      "Ġthoroughly": 4926,
      "Ġinsincere": 4927,
      "iring": 4928,
      "Ġages": 4929,
      "Ġpsych": 4930,
      "Ġmath": 4931,
      "ptop": 4932,
      "Ġdropped": 4933,
      "Ġfi": 4934,
      "elly": 4935,
      "sters": 4936,
      "Ġfrag": 4937,
      "Ġconcert": 4938,
      "Ġliking": 4939,
      "Ġabandoned": 4940,
      "Ġsolemn": 4941,
      "ral": 4942,
      "Ġcit": 4943,
      "Ġdisag": 4944,
      "Ġseconds": 4945,
      "Ġflowers": 4946,
      "Ġsolution": 4947,
      "bits": 4948,
      "Ġnofollow": 4949,
      "underst": 4950,
      "Ġdata": 4951,
      "ids": 4952,
      "Ġweigh": 4953,
      "Ġmeat": 4954,
      "Ġgoodby": 4955,
      "Ġembarrass": 4956,
      "Ġcontempl": 4957,
      "Ġfren": 4958,
      "Ġeight": 4959,
      "Ġraw": 4960,
      "Ġknee": 4961,
      "ares": 4962,
      "Ġcath": 4963,
      "Ġplayers": 4964,
      "dra": 4965,
      "Ġtack": 4966,
      "Ġsouth": 4967,
      "rit": 4968,
      "Ġbeer": 4969,
      "Ġjustice": 4970,
      "Ġcompare": 4971,
      "Ġdecent": 4972,
      "Ġrestaurant": 4973,
      "Ġcell": 4974,
      "Ġdare": 4975,
      "Ġtrapped": 4976,
      "Ġcommitted": 4977,
      "Ġpatience": 4978,
      "Ġdy": 4979,
      "Ġcovered": 4980,
      "Ġmedicine": 4981,
      "Ġpics": 4982,
      "Ġactive": 4983,
      "Ġcopy": 4984,
      "fy": 4985,
      "Ġmeals": 4986,
      "inging": 4987,
      "Ġshell": 4988,
      "pper": 4989,
      "Ġfruit": 4990,
      "Ġwondered": 4991,
      "Ġdrove": 4992,
      "Ġvote": 4993,
      "Ġquote": 4994,
      "Ġmornings": 4995,
      "Ġlaptop": 4996,
      "Ġbashful": 4997,
      "Ġtherapy": 4998,
      "Ġstation": 4999,
      "Ġobsess": 5000,
      "ration": 5001,
      "Ġdisres": 5002,
      "Ġintent": 5003,
      "Ġbedroom": 5004,
      "Ġoffered": 5005,
      "Ġfilms": 5006,
      "Ġguard": 5007,
      "Ġinsight": 5008,
      "Ġdirectly": 5009,
      "Ġpolice": 5010,
      "Ġreligious": 5011,
      "Ġath": 5012,
      "Ġloser": 5013,
      "Ġblan": 5014,
      "ĠK": 5015,
      "Ġwrap": 5016,
      "Ġreward": 5017,
      "Ġincident": 5018,
      "Ġcraw": 5019,
      "Ġtasks": 5020,
      "Ġrealizing": 5021,
      "Ġfinishing": 5022,
      "Ġholy": 5023,
      "Ġraise": 5024,
      "ĠDay": 5025,
      "Ġrough": 5026,
      "Ġcris": 5027,
      "Ġunfortunately": 5028,
      "ropriate": 5029,
      "nds": 5030,
      "athers": 5031,
      "Ġcontribute": 5032,
      "Ġsurprisingly": 5033,
      "Ġdocument": 5034,
      "Ġnove": 5035,
      "Ġbrief": 5036,
      "Ġhill": 5037,
      "ashing": 5038,
      "Ġappl": 5039,
      "Ġconfront": 5040,
      "Ġlyrics": 5041,
      "Ġchapter": 5042,
      "Ġmethod": 5043,
      "Ġmat": 5044,
      "Ġgri": 5045,
      "icient": 5046,
      "Ġagre": 5047,
      "Ġgranted": 5048,
      "Ġpartly": 5049,
      "Ġimport": 5050,
      "Ġsleepy": 5051,
      "Ġtrees": 5052,
      "Ġnovember": 5053,
      "Ġ...": 5054,
      "Ġphr": 5055,
      "Ġgrey": 5056,
      "Ġreminds": 5057,
      "Ġdiscussion": 5058,
      "Ġnasty": 5059,
      "anding": 5060,
      "Ġhotel": 5061,
      "Ġbread": 5062,
      "Ġnail": 5063,
      "Ġintel": 5064,
      "Ġbrit": 5065,
      "Ġwave": 5066,
      "Ġflawless": 5067,
      "Ġcart": 5068,
      "Ġreaching": 5069,
      "irm": 5070,
      "Ġtransition": 5071,
      "ella": 5072,
      "Ġbits": 5073,
      "Ġburning": 5074,
      "Ġtorn": 5075,
      "Ġdavid": 5076,
      "Ġbelieved": 5077,
      "Ġmedication": 5078,
      "Ġridiculously": 5079,
      "ext": 5080,
      "Ġreleas": 5081,
      "Ġgreatly": 5082,
      "Ġdarkness": 5083,
      "Ġdisad": 5084,
      "Ġparties": 5085,
      "Ġadmitted": 5086,
      "Ġbiggest": 5087,
      "Ġmedical": 5088,
      "Ġwisdom": 5089,
      "Ġscale": 5090,
      "Ġgross": 5091,
      "Ġstreets": 5092,
      "Ġvolunte": 5093,
      "Ġhence": 5094,
      "Ġmoon": 5095,
      "Ġdiscom": 5096,
      "Ġuser": 5097,
      "ception": 5098,
      "Ġallows": 5099,
      "Ġdevelopment": 5100,
      "Ġcustomer": 5101,
      "Ġshed": 5102,
      "Ġnowhere": 5103,
      "Ġadmire": 5104,
      "inese": 5105,
      "Ġclients": 5106,
      "Ġsteal": 5107,
      "Ġfirm": 5108,
      "Ġaunt": 5109,
      "Ġdeny": 5110,
      "Ġaint": 5111,
      "uls": 5112,
      "Ġheels": 5113,
      "Ġadjust": 5114,
      "Ġoptions": 5115,
      "Ġleaders": 5116,
      "surprise": 5117,
      "ham": 5118,
      "Ġnd": 5119,
      "Ġlearnt": 5120,
      "Ġunkind": 5121,
      "Ġremembering": 5122,
      "Ġprivate": 5123,
      "ara": 5124,
      "Ġnotes": 5125,
      "Ġstartled": 5126,
      "cast": 5127,
      "Ġaward": 5128,
      "Ġbrush": 5129,
      "Ġgreater": 5130,
      "Ġargument": 5131,
      "Ġcanc": 5132,
      "Ġsavage": 5133,
      "Ġbat": 5134,
      "Ġoce": 5135,
      "Ġnag": 5136,
      "Ġsubst": 5137,
      "Ġmodern": 5138,
      "wood": 5139,
      "Ġlun": 5140,
      "Ġjune": 5141,
      "Ġtrav": 5142,
      "Ġsurely": 5143,
      "Ġengage": 5144,
      "Ġnorth": 5145,
      "Ġdisease": 5146,
      "ga": 5147,
      "Ġapple": 5148,
      "Ġdistinct": 5149,
      "Ġdisconnect": 5150,
      "Ġadmitting": 5151,
      "Ġmoody": 5152,
      "Ġhyper": 5153,
      "Ġpurchase": 5154,
      "Ġgoodness": 5155,
      "Ġsmoke": 5156,
      "Ġgoodbye": 5157,
      "Ġintellect": 5158,
      "ique": 5159,
      "pret": 5160,
      "Ġtun": 5161,
      "Ġsimult": 5162,
      "Ġtension": 5163,
      "atives": 5164,
      "Ġmyster": 5165,
      "Ġunre": 5166,
      "Ġarr": 5167,
      "Ġyours": 5168,
      "Ġscar": 5169,
      "Ġeaten": 5170,
      "Ġlimit": 5171,
      "Ġdestroy": 5172,
      "Ġtheyve": 5173,
      "Ġthrown": 5174,
      "Ġtall": 5175,
      "Ġpow": 5176,
      "Ġjac": 5177,
      "Ġempt": 5178,
      "Ġautom": 5179,
      "Ġmultip": 5180,
      "Ġlover": 5181,
      "Ġnoise": 5182,
      "Ġbelieving": 5183,
      "Ġprayers": 5184,
      "Ġprince": 5185,
      "sis": 5186,
      "Ġcin": 5187,
      "interest": 5188,
      "Ġcheap": 5189,
      "Ġdeveloped": 5190,
      "Ġconcentrate": 5191,
      "Ġpattern": 5192,
      "iqu": 5193,
      "atically": 5194,
      "Ġrise": 5195,
      "Ġjealousy": 5196,
      "Ġvoc": 5197,
      "Ġfle": 5198,
      "outube": 5199,
      "oting": 5200,
      "acle": 5201,
      "Ġchann": 5202,
      "Ġjun": 5203,
      "Ġdiag": 5204,
      "aches": 5205,
      "beat": 5206,
      "Ġsexually": 5207,
      "Ġchoosing": 5208,
      "Ġeth": 5209,
      "aud": 5210,
      "Ġunus": 5211,
      "Ġdepartment": 5212,
      "Ġmart": 5213,
      "Ġbare": 5214,
      "eding": 5215,
      "Ġwashing": 5216,
      "Ġparenting": 5217,
      "Ġlights": 5218,
      "Ġlimited": 5219,
      "Ġscience": 5220,
      "Ġhed": 5221,
      "Ġgather": 5222,
      "char": 5223,
      "essions": 5224,
      "Ġleads": 5225,
      "Ġfinancial": 5226,
      "Ġwithdra": 5227,
      "Ġemails": 5228,
      "Ġmisunderst": 5229,
      "Ġbliss": 5230,
      "Ġtwist": 5231,
      "Ġstudio": 5232,
      "easy": 5233,
      "Ġaffection": 5234,
      "Ġupcoming": 5235,
      "Ġhappily": 5236,
      "Ġgoods": 5237,
      "Ġchecked": 5238,
      "Ġexhaust": 5239,
      "Ġsomed": 5240,
      "Ġraised": 5241,
      "ucks": 5242,
      "Ġfeedback": 5243,
      "Ġcash": 5244,
      "ables": 5245,
      "Ġups": 5246,
      "Ġawfully": 5247,
      "Ġprot": 5248,
      "Ġtalent": 5249,
      "Ġfabric": 5250,
      "Ġwishes": 5251,
      "Ġattractive": 5252,
      "Ġrights": 5253,
      "Ġsimultaneously": 5254,
      "zzy": 5255,
      "Ġaverage": 5256,
      "Ġpic": 5257,
      "Ġwasting": 5258,
      "ators": 5259,
      "Ġsoo": 5260,
      "Ġrow": 5261,
      "Ġrare": 5262,
      "ades": 5263,
      "Ġrefresh": 5264,
      "chool": 5265,
      "Ġcrush": 5266,
      "Ġfollowers": 5267,
      "ĠGood": 5268,
      "Ġvideos": 5269,
      "Ġsurface": 5270,
      "mit": 5271,
      "Ġcoun": 5272,
      "rences": 5273,
      "ivated": 5274,
      "Ġrestr": 5275,
      "Ġsnap": 5276,
      "Ġtransl": 5277,
      "Ġpoetry": 5278,
      "Ġcope": 5279,
      "Ġdouble": 5280,
      "Ġbrow": 5281,
      "Ġwaves": 5282,
      "Ġtalks": 5283,
      "gment": 5284,
      "Ġtast": 5285,
      "Ġnational": 5286,
      "Ġextreme": 5287,
      "Ġlatest": 5288,
      "Ġcateg": 5289,
      "Ġpag": 5290,
      "Ġish": 5291,
      "Ġalright": 5292,
      "ashed": 5293,
      "Ġparticipate": 5294,
      "mo": 5295,
      "Ġtick": 5296,
      "vention": 5297,
      "Ġsoooo": 5298,
      "Ġdisadvant": 5299,
      "Ġentered": 5300,
      "Ġgrandm": 5301,
      "Ġconcern": 5302,
      "Ġimportance": 5303,
      "Ġtele": 5304,
      "Ġow": 5305,
      "Ġego": 5306,
      "Ġindividuals": 5307,
      "Ġdisadvantaged": 5308,
      "Ġnarr": 5309,
      "Ġuk": 5310,
      "Ġbite": 5311,
      "Ġeg": 5312,
      "Ġvill": 5313,
      "Ġexcell": 5314,
      "Ġcourt": 5315,
      "Ġpursue": 5316,
      "Ġbump": 5317,
      "Ġfocusing": 5318,
      "Ġformer": 5319,
      "Ġhatred": 5320,
      "Ġcitiz": 5321,
      "Ġdelet": 5322,
      "Ġhellip": 5323,
      "Ġbeliefs": 5324,
      "Ġmeasure": 5325,
      "Ġtoler": 5326,
      "eds": 5327,
      "Ġworries": 5328,
      "Ġboat": 5329,
      "Ġempow": 5330,
      "Ġmerely": 5331,
      "Ġcapture": 5332,
      "Ġanticipation": 5333,
      "Ġcolleagues": 5334,
      "Ġunexpected": 5335,
      "Ġdust": 5336,
      "Ġreminder": 5337,
      "Ġhello": 5338,
      "Ġdiscomfort": 5339,
      "Ġmc": 5340,
      "itpic": 5341,
      "Ġchallenged": 5342,
      "Ġdeserves": 5343,
      "Ġlabor": 5344,
      "ero": 5345,
      "Ġdump": 5346,
      "Ġpile": 5347,
      "Ġhabits": 5348,
      "Ġtopics": 5349,
      "Ġbehaviour": 5350,
      "Ġmodel": 5351,
      "Ġoct": 5352,
      "Ġoffering": 5353,
      "Ġproduce": 5354,
      "bby": 5355,
      "ocr": 5356,
      "Ġocean": 5357,
      "ials": 5358,
      "itor": 5359,
      "Ġelses": 5360,
      "Ġmilk": 5361,
      "Ġsignificant": 5362,
      "Ġbrill": 5363,
      "Ġmax": 5364,
      "ister": 5365,
      "Ġexpensive": 5366,
      "Ġrecovery": 5367,
      "Ġgenuine": 5368,
      "ived": 5369,
      "Ġfaced": 5370,
      "Ġhid": 5371,
      "Ġcaut": 5372,
      "atest": 5373,
      "oles": 5374,
      "Ġromance": 5375,
      "Ġencoura": 5376,
      "Ġfiction": 5377,
      "Ġaggress": 5378,
      "Ġskill": 5379,
      "Ġbasic": 5380,
      "Ġletters": 5381,
      "sty": 5382,
      "Ġrely": 5383,
      "Ġshown": 5384,
      "Ġsale": 5385,
      "Ġfilling": 5386,
      "Ġcommunication": 5387,
      "Ġidentity": 5388,
      "cons": 5389,
      "Ġfate": 5390,
      "Ġhumor": 5391,
      "Ġinstruct": 5392,
      "Ġexplan": 5393,
      "Ġhubby": 5394,
      "down": 5395,
      "haha": 5396,
      "Ġvibe": 5397,
      "Ġpreviously": 5398,
      "Ġindependent": 5399,
      "egr": 5400,
      "Ġtax": 5401,
      "Ġhating": 5402,
      "Ġmode": 5403,
      "Ġdisci": 5404,
      "wered": 5405,
      "Ġviolence": 5406,
      "Ġcutting": 5407,
      "Ġtummy": 5408,
      "Ġcomplex": 5409,
      "Ġspect": 5410,
      "Ġtips": 5411,
      "Ġrange": 5412,
      "Ġgeneration": 5413,
      "olution": 5414,
      "Ġarrive": 5415,
      "Ġworkers": 5416,
      "Ġmountain": 5417,
      "ams": 5418,
      "cies": 5419,
      "Ġguide": 5420,
      "Ġgreatest": 5421,
      "Ġunwor": 5422,
      "Ġsearching": 5423,
      "Ġeurope": 5424,
      "ases": 5425,
      "Ġstead": 5426,
      "Ġrac": 5427,
      "Ġdisp": 5428,
      "Ġplate": 5429,
      "reci": 5430,
      "Ġcompleted": 5431,
      "Ġsports": 5432,
      "Ġsomeday": 5433,
      "Ġpad": 5434,
      "Ġchinese": 5435,
      "Ġvisiting": 5436,
      "Ġlaughed": 5437,
      "Ġmourn": 5438,
      "of": 5439,
      "Ġtoes": 5440,
      "Ġyoutube": 5441,
      "Ġry": 5442,
      "Ġframe": 5443,
      "Ġemo": 5444,
      "Ġgrocer": 5445,
      "che": 5446,
      "pered": 5447,
      "Ġclick": 5448,
      "Ġhorror": 5449,
      "Ġprofound": 5450,
      "Ġsigns": 5451,
      "Ġkilling": 5452,
      "Ġiron": 5453,
      "Ġquietly": 5454,
      "Ġtools": 5455,
      "aying": 5456,
      "Ġjames": 5457,
      "Ġflav": 5458,
      "Ġskip": 5459,
      "Ġexperiment": 5460,
      "mal": 5461,
      "Ġcab": 5462,
      "iously": 5463,
      "Ġsurvive": 5464,
      "Ġfortunate": 5465,
      "Ġmama": 5466,
      "Ġoutcome": 5467,
      "Ġsometime": 5468,
      "ĠLO": 5469,
      "jud": 5470,
      "Ġip": 5471,
      "itar": 5472,
      "Ġanytime": 5473,
      "Ġperverse": 5474,
      "Ġaddition": 5475,
      "Ġsettled": 5476,
      "twitpic": 5477,
      "Ġinev": 5478,
      "Ġacceptance": 5479,
      "Ġfailing": 5480,
      "Ġimagined": 5481,
      "inting": 5482,
      "osity": 5483,
      "Ġdreaming": 5484,
      "Ġattacked": 5485,
      "zed": 5486,
      "Ġtrau": 5487,
      "Ġunm": 5488,
      "Ġawe": 5489,
      "Ġgodd": 5490,
      "away": 5491,
      "Ġstepped": 5492,
      "Ġsuicide": 5493,
      "Ġapplication": 5494,
      "Ġsno": 5495,
      "ica": 5496,
      "Ġsuffe": 5497,
      "Ġdesig": 5498,
      "Ġmob": 5499,
      "Ġheck": 5500,
      "Ġimpression": 5501,
      "Ġseemingly": 5502,
      "Ġinstinct": 5503,
      "Ġrecover": 5504,
      "Ġbible": 5505,
      "Ġlacking": 5506,
      "Ġpains": 5507,
      "Ġhorse": 5508,
      "Ġdishes": 5509,
      "Ġkore": 5510,
      "Ġpleasantly": 5511,
      "Ġfallen": 5512,
      "Ġpromised": 5513,
      "Ġcommunicate": 5514,
      "Ġwidth": 5515,
      "Ġhitting": 5516,
      "Ġshr": 5517,
      "Ġideal": 5518,
      "Ġbru": 5519,
      "Ġplane": 5520,
      "Ġreturning": 5521,
      "Ġattached": 5522,
      "Ġsharp": 5523,
      "Ġputs": 5524,
      "ĠSo": 5525,
      "Ġmidst": 5526,
      "Ġamongst": 5527,
      "Ġneighborhood": 5528,
      "fa": 5529,
      "Ġbang": 5530,
      "Ġisland": 5531,
      "Ġbeings": 5532,
      "Ġaffected": 5533,
      "Ġphotography": 5534,
      "Ġadopt": 5535,
      "Ġhumbled": 5536,
      "Ġppl": 5537,
      "Ġven": 5538,
      "Ġeveryones": 5539,
      "udge": 5540,
      "Ġtwenty": 5541,
      "Ġgreet": 5542,
      "Ġinfuri": 5543,
      "Ġsaddened": 5544,
      "kin": 5545,
      "onal": 5546,
      "Ġnation": 5547,
      "Ġknees": 5548,
      "Ġconstruct": 5549,
      "Ġweakness": 5550,
      "Ġjerk": 5551,
      "Ġtempted": 5552,
      "Ġexch": 5553,
      "Ġtheme": 5554,
      "Ġmanip": 5555,
      "Ġstruct": 5556,
      "Ġhearted": 5557,
      "Ġpresents": 5558,
      "Ġsquee": 5559,
      "Ġbodies": 5560,
      "Ġmagazine": 5561,
      "ya": 5562,
      "Ġthrew": 5563,
      "Ġsupported": 5564,
      "Ġsewing": 5565,
      "Ġanyways": 5566,
      "Ġchecking": 5567,
      "Ġtraveling": 5568,
      "Ġattracted": 5569,
      "Ġrepeated": 5570,
      "Ġswimming": 5571,
      "Ġdiagno": 5572,
      "Ġobama": 5573,
      "Ġgrandp": 5574,
      "Ġawareness": 5575,
      "Ġnurse": 5576,
      "ER": 5577,
      "da": 5578,
      "zen": 5579,
      "Ġq": 5580,
      "Ġsides": 5581,
      "Ġped": 5582,
      "Ġchina": 5583,
      "Ġunsett": 5584,
      "Ġirate": 5585,
      "ification": 5586,
      "Ġsecretly": 5587,
      "Ġportr": 5588,
      "gia": 5589,
      "Ġseven": 5590,
      "Ġelement": 5591,
      "Ġwaited": 5592,
      "Ġexposed": 5593,
      "Ġinvol": 5594,
      "Ġstir": 5595,
      "Ġcolours": 5596,
      "vision": 5597,
      "Ġtho": 5598,
      "Ġbills": 5599,
      "Ġham": 5600,
      "appreci": 5601,
      "Ġblessing": 5602,
      "Ġpositively": 5603,
      "Ġexpressed": 5604,
      "Ġnumbers": 5605,
      "Ġcommitment": 5606,
      "look": 5607,
      "Ġchances": 5608,
      "Ġbuilt": 5609,
      "Ġcompetition": 5610,
      "Ġdisgusting": 5611,
      "Ġ:": 5612,
      "Ġfu": 5613,
      "Ġbon": 5614,
      "Ġjunk": 5615,
      "udes": 5616,
      "Ġwrapped": 5617,
      "ls": 5618,
      "ulty": 5619,
      "Ġcomparison": 5620,
      "Ġtheat": 5621,
      "Ġtodd": 5622,
      "otes": 5623,
      "Ġsaving": 5624,
      "Ġsinking": 5625,
      "Ġschools": 5626,
      "Ġspiritually": 5627,
      "Ġforeign": 5628,
      "Ġglasses": 5629,
      "cil": 5630,
      "ino": 5631,
      "Ġstro": 5632,
      "ading": 5633,
      "Ġsincer": 5634,
      "eav": 5635,
      "Ġsentence": 5636,
      "Ġprofess": 5637,
      "Ġdramatic": 5638,
      "Ġpiss": 5639,
      "adays": 5640,
      "uzz": 5641,
      "Ġorganization": 5642,
      "hole": 5643,
      "Ġtug": 5644,
      "Ġwore": 5645,
      "Ġimpress": 5646,
      "Ġconvince": 5647,
      "Ġpale": 5648,
      "Ġanswered": 5649,
      "Ġtow": 5650,
      "ality": 5651,
      "Ġalt": 5652,
      "Ġworship": 5653,
      "rog": 5654,
      "ĠBut": 5655,
      "Ġsmoking": 5656,
      "porary": 5657,
      "Ġemptiness": 5658,
      "Ġgrie": 5659,
      "Ġshel": 5660,
      "Ġnowadays": 5661,
      "eps": 5662,
      "Ġgrasp": 5663,
      "Ġminim": 5664,
      "Ġaccord": 5665,
      "Ġtang": 5666,
      "Ġalex": 5667,
      "Ġny": 5668,
      "alf": 5669,
      "Ġkat": 5670,
      "Ġflowing": 5671,
      "Ġdisappear": 5672,
      "lings": 5673,
      "Ġrejection": 5674,
      "Ġencounter": 5675,
      "fly": 5676,
      "lin": 5677,
      "ĠWh": 5678,
      "Ġbeneath": 5679,
      "Ġsmiles": 5680,
      "fically": 5681,
      "Ġsept": 5682,
      "Ġpeers": 5683,
      "Ġenem": 5684,
      "Ġangu": 5685,
      "Ġstudies": 5686,
      "Ġnerves": 5687,
      "Ġfatig": 5688,
      "Ġscratch": 5689,
      "Ġrecipes": 5690,
      "Ġwheel": 5691,
      "Ġunworthy": 5692,
      "Ġcorn": 5693,
      "Ġpizz": 5694,
      "Ġsaved": 5695,
      "Ġcharge": 5696,
      "Ġmeds": 5697,
      "Ġfulfilled": 5698,
      "Ġsau": 5699,
      "Ġmelt": 5700,
      "Ġincom": 5701,
      "Ġdecl": 5702,
      "ustral": 5703,
      "ucing": 5704,
      "Ġthick": 5705,
      "otivated": 5706,
      "Ġanaly": 5707,
      "Ġendeav": 5708,
      "Ġveget": 5709,
      "Ġcounter": 5710,
      "bbing": 5711,
      "Ġkicks": 5712,
      "Ġenthr": 5713,
      "vation": 5714,
      "Ġkicking": 5715,
      "Ġtheyll": 5716,
      "Ġfitness": 5717,
      "ius": 5718,
      "ju": 5719,
      "Ġrate": 5720,
      "Ġtex": 5721,
      "Ġmuscle": 5722,
      "Ġrelaxing": 5723,
      "Ġavoiding": 5724,
      "Ġcampus": 5725,
      "ament": 5726,
      "Ġunne": 5727,
      "Ġtrend": 5728,
      "imes": 5729,
      "Ġcontinues": 5730,
      "Ġmultiple": 5731,
      "ael": 5732,
      "Ġyork": 5733,
      "Ġnewb": 5734,
      "Ġexplaining": 5735,
      "Ġconflicted": 5736,
      "Ġtremend": 5737,
      "Ġgrandmother": 5738,
      "ca": 5739,
      "Ġhous": 5740,
      "Ġhonor": 5741,
      "phone": 5742,
      "ĠAnd": 5743,
      "ini": 5744,
      "Ġhint": 5745,
      "Ġvom": 5746,
      "Ġacts": 5747,
      "Ġbenefits": 5748,
      "Ġvibr": 5749,
      "Ġexcellent": 5750,
      "Ġmall": 5751,
      "Ġpapers": 5752,
      "Ġmoist": 5753,
      "Ġsees": 5754,
      "Ġhttps": 5755,
      "Ġmoronic": 5756,
      "ology": 5757,
      "Ġglamour": 5758,
      "Ġscenes": 5759,
      "Ġinfuriated": 5760,
      "Ġciv": 5761,
      "Ġren": 5762,
      "Ġshots": 5763,
      "Ġchamp": 5764,
      "Ġinsane": 5765,
      "Ġpowerless": 5766,
      "Ġdaddy": 5767,
      "Ġsales": 5768,
      "Ġhunger": 5769,
      "Ġjam": 5770,
      "Ġdamage": 5771,
      "Ġdriven": 5772,
      "eeee": 5773,
      "Ġcustomers": 5774,
      "Ġbun": 5775,
      "Ġhip": 5776,
      "Ġdude": 5777,
      "arn": 5778,
      "Ġsus": 5779,
      "weet": 5780,
      "Ġcloset": 5781,
      "box": 5782,
      "ba": 5783,
      "Ġconference": 5784,
      "azz": 5785,
      "Ġcarried": 5786,
      "Ġshock": 5787,
      "Ġsooner": 5788,
      "Ġinterests": 5789,
      "Ġdrawn": 5790,
      "Ġfeeding": 5791,
      "Ġconclusion": 5792,
      "Ġdignified": 5793,
      "ki": 5794,
      "Ġens": 5795,
      "Ġamazingly": 5796,
      "ĠOh": 5797,
      "Ġmask": 5798,
      "Ġaug": 5799,
      "vere": 5800,
      "Ġwest": 5801,
      "agon": 5802,
      "Ġclut": 5803,
      "Ġclock": 5804,
      "Ġadults": 5805,
      "Ġrefreshed": 5806,
      "Ġenthralled": 5807,
      "Ġlap": 5808,
      "Ġplant": 5809,
      "Ġadvert": 5810,
      "uded": 5811,
      "Ġdefend": 5812,
      "Ġsnack": 5813,
      "alog": 5814,
      "acity": 5815,
      "Ġriver": 5816,
      "Ġmagn": 5817,
      "ender": 5818,
      "ements": 5819,
      "Ġsunny": 5820,
      "Ġdemon": 5821,
      "Ġpuppy": 5822,
      "Ġdisagree": 5823,
      "Ġpig": 5824,
      "Ġnick": 5825,
      "ops": 5826,
      "usive": 5827,
      "Ġpolic": 5828,
      "ember": 5829,
      "Ġkindness": 5830,
      "Ġindia": 5831,
      "Ġfoundation": 5832,
      "Ġleader": 5833,
      "Ġaustral": 5834,
      "Ġtooth": 5835,
      "Ġlied": 5836,
      "izes": 5837,
      "Ġserving": 5838,
      "Ġbags": 5839,
      "uu": 5840,
      "wich": 5841,
      "Ġamorous": 5842,
      "Ġyoud": 5843,
      "Ġhehe": 5844,
      "Ġplat": 5845,
      "Ġsurre": 5846,
      "Ġtouching": 5847,
      "ĠThanks": 5848,
      "oll": 5849,
      "elle": 5850,
      "Ġjen": 5851,
      "Ġsucked": 5852,
      "Ġintegr": 5853,
      "Ġcyn": 5854,
      "Ġcandy": 5855,
      "dr": 5856,
      "vable": 5857,
      "Ġinfect": 5858,
      "Ġpee": 5859,
      "anda": 5860,
      "Ġseeking": 5861,
      "Ġperman": 5862,
      "cript": 5863,
      "Ġpublish": 5864,
      "Ġunbelie": 5865,
      "ups": 5866,
      "rees": 5867,
      "Ġbast": 5868,
      "Ġgee": 5869,
      "Ġrose": 5870,
      "Ġouts": 5871,
      "Ġque": 5872,
      "Ġawoke": 5873,
      "aughters": 5874,
      "Ġarticles": 5875,
      "Ġaccomplishment": 5876,
      "Ġelection": 5877,
      "Ġfrench": 5878,
      "Ġbrilliant": 5879,
      "Ġpizza": 5880,
      "ober": 5881,
      "Ġgently": 5882,
      "otion": 5883,
      "Ġunin": 5884,
      "Ġcontext": 5885,
      "Ġcrave": 5886,
      "Ġinfer": 5887,
      "Ġtypes": 5888,
      "Ġreplied": 5889,
      "Ġphrase": 5890,
      "wr": 5891,
      "Ġbor": 5892,
      "Ġhook": 5893,
      "Ġgerm": 5894,
      "oph": 5895,
      "Ġinvite": 5896,
      "Ġfarm": 5897,
      "Ġpaul": 5898,
      "Ġpatients": 5899,
      "ipe": 5900,
      "Ġmatt": 5901,
      "Ġchris": 5902,
      "Ġhardest": 5903,
      "Ġmarry": 5904,
      "Ġinterrupt": 5905,
      "Ġignoring": 5906,
      "Ġsilent": 5907,
      "IN": 5908,
      "ped": 5909,
      "umn": 5910,
      "Ġarch": 5911,
      "Ġgiant": 5912,
      "Ġshorts": 5913,
      "Ġstruggles": 5914,
      "fting": 5915,
      "reak": 5916,
      "Ġum": 5917,
      "Ġdizzy": 5918,
      "Ġsmaller": 5919,
      "Ġgrounded": 5920,
      "Ġfinancially": 5921,
      "rep": 5922,
      "Ġstream": 5923,
      "ads": 5924,
      "Ġcommer": 5925,
      "Ġsorta": 5926,
      "ĠThat": 5927,
      "oh": 5928,
      "ums": 5929,
      "Ġsink": 5930,
      "shit": 5931,
      "lim": 5932,
      "ĠV": 5933,
      "Ġtil": 5934,
      "Ġconvey": 5935,
      "Ġadore": 5936,
      "Ġclin": 5937,
      "Ġfold": 5938,
      "Ġairport": 5939,
      "wal": 5940,
      "Ġsi": 5941,
      "Ġjul": 5942,
      "Ġdistant": 5943,
      "Ġcareful": 5944,
      "Ġengaged": 5945,
      "EE": 5946,
      "bish": 5947,
      "nn": 5948,
      "etime": 5949,
      "Ġunappreci": 5950,
      "Ġjudgment": 5951,
      "Ġneglected": 5952,
      "Ġomg": 5953,
      "Ġjapanese": 5954,
      "Ġghost": 5955,
      "Ġ5": 5956,
      "Ġintended": 5957,
      "Ġfancy": 5958,
      "Ġcandid": 5959,
      "Ġsuffered": 5960,
      "gl": 5961,
      "Â¿": 5962,
      "Ã¯": 5963,
      "âģ": 5964,
      "atory": 5965,
      "owed": 5966,
      "Ġjuly": 5967,
      "Ġbehalf": 5968,
      "Ġdestruct": 5969,
      "Ġidentify": 5970,
      "âģĦ": 5971,
      "Ġwat": 5972,
      "Ġmoves": 5973,
      "Ġinsan": 5974,
      "Ġsouls": 5975,
      "amps": 5976,
      "Ġblur": 5977,
      "Ġmonster": 5978,
      "Ġabsence": 5979,
      "Ġkicked": 5980,
      "Ġexplode": 5981,
      "Ġinfluence": 5982,
      "itating": 5983,
      "Ġgear": 5984,
      "Ġpersons": 5985,
      "Ġimportantly": 5986,
      "Ġhumanity": 5987,
      "aaaa": 5988,
      "Ġtut": 5989,
      "stick": 5990,
      "Ġguid": 5991,
      "soever": 5992,
      "Ġwoe": 5993,
      "Ġbuzz": 5994,
      "Ġweekends": 5995,
      "Ġattempting": 5996,
      "Ġrequire": 5997,
      "Ġnursing": 5998,
      "Ġbirds": 5999,
      "asc": 6000,
      "Ġcode": 6001,
      "Ġclassmates": 6002,
      "Ġengine": 6003,
      "Ġengland": 6004,
      "Ġharsh": 6005,
      "Ġpolitics": 6006,
      "Ġindulge": 6007,
      "Ġrule": 6008,
      "ado": 6009,
      "urities": 6010,
      "Ġafric": 6011,
      "Ġcoach": 6012,
      "Ġendless": 6013,
      "Ġdrow": 6014,
      "Ġcrime": 6015,
      "Ġholds": 6016,
      "Ġdespised": 6017,
      "Ġsolve": 6018,
      "ĠNo": 6019,
      "Ġshooting": 6020,
      "Ġjuice": 6021,
      "Ġ*": 6022,
      "Ġchic": 6023,
      "Ġuneasy": 6024,
      "Ġdesires": 6025,
      "Ġmisery": 6026,
      "Ġvoices": 6027,
      "Ġpublished": 6028,
      "Ġtelevision": 6029,
      "Ġkar": 6030,
      "ternal": 6031,
      "Ġintensely": 6032,
      "Ġappeal": 6033,
      "Ġmeaningful": 6034,
      "Ġpretending": 6035,
      "Ġjanuary": 6036,
      "bling": 6037,
      "Ġdaughters": 6038,
      "alu": 6039,
      "Ġquart": 6040,
      "Ġsites": 6041,
      "Ġtraffic": 6042,
      "Ġcookies": 6043,
      "Ġmike": 6044,
      "Ġheres": 6045,
      "Ġlock": 6046,
      "Ġconv": 6047,
      "Ġwhatsoever": 6048,
      "Ġplaced": 6049,
      "Ġbold": 6050,
      "Ġopposed": 6051,
      "Ġpunish": 6052,
      "Ġphilos": 6053,
      "Ġlbs": 6054,
      "Ġlaughter": 6055,
      "Ġorg": 6056,
      "Ġprejud": 6057,
      "Ġheads": 6058,
      "Ġsandwich": 6059,
      "Ġdisplay": 6060,
      "Ġexplanation": 6061,
      "ille": 6062,
      "Ġunfriend": 6063,
      "Ġclue": 6064,
      "Ġjokes": 6065,
      "Ġdresses": 6066,
      "Ġspecifically": 6067,
      "xic": 6068,
      "Ġtip": 6069,
      "Ġwindows": 6070,
      "Ġencouraged": 6071,
      "Ġcelebrating": 6072,
      "Ġisra": 6073,
      "Ġoutfits": 6074,
      "Ġdiscussing": 6075,
      "Ġdiscipl": 6076,
      "Ġnine": 6077,
      "Ġwhoever": 6078,
      "Ġdisor": 6079,
      "Ġappreciation": 6080,
      "Ġstandard": 6081,
      "Ġspirits": 6082,
      "Ġchallenging": 6083,
      "Ġempowered": 6084,
      "Ġhallow": 6085,
      "uled": 6086,
      "Ġempathy": 6087,
      "Ġsubt": 6088,
      "Ġopenly": 6089,
      "Ġenvy": 6090,
      "Ġcruel": 6091,
      "Ġpraise": 6092,
      "Ġnagging": 6093,
      "Ġtune": 6094,
      "Ġdomin": 6095,
      "Ġprem": 6096,
      "Ġjoined": 6097,
      "Ġminds": 6098,
      "Ġmini": 6099,
      "Ġtons": 6100,
      "Ġpolish": 6101,
      "Ġencouraging": 6102,
      "boy": 6103,
      "Ġreh": 6104,
      "Ġstone": 6105,
      "Ġram": 6106,
      "Ġrushing": 6107,
      "anta": 6108,
      "Ġbloody": 6109,
      "Ġnurt": 6110,
      "Ġlux": 6111,
      "Ġthousands": 6112,
      "Ġseptember": 6113,
      "blog": 6114,
      "Ġfathers": 6115,
      "itary": 6116,
      "stairs": 6117,
      "ours": 6118,
      "tte": 6119,
      "Ġcompliment": 6120,
      "Ġpractically": 6121,
      "Ġmassive": 6122,
      "Ġgrass": 6123,
      "Ġwonderfully": 6124,
      "Ġsubs": 6125,
      "Ġresponsibilities": 6126,
      "Ġservices": 6127,
      "Ġordinary": 6128,
      "eled": 6129,
      "Ġcig": 6130,
      "Ġness": 6131,
      "iments": 6132,
      "ril": 6133,
      "Ġvint": 6134,
      "Ġintens": 6135,
      "Ġremove": 6136,
      "Ġtendency": 6137,
      "Ġvisual": 6138,
      "igorous": 6139,
      "Ġsoup": 6140,
      "Ġmournful": 6141,
      "Ġobligation": 6142,
      "Ġcousin": 6143,
      "Ġaugust": 6144,
      "pan": 6145,
      "Ġmic": 6146,
      "Ġtodays": 6147,
      "url": 6148,
      "Ġasshole": 6149,
      "Ġprompt": 6150,
      "Ġprofile": 6151,
      "Ġdescribed": 6152,
      "Ġroute": 6153,
      "Ġloads": 6154,
      "Ġthigh": 6155,
      "Ġmud": 6156,
      "Ġtoile": 6157,
      "Ġpor": 6158,
      "olute": 6159,
      "Ġbroad": 6160,
      "Ġintelligence": 6161,
      "Ġwinning": 6162,
      "Ġaccur": 6163,
      "Ġexercising": 6164,
      "uzzy": 6165,
      "Ġlungs": 6166,
      "Ġweren": 6167,
      "Ġworlds": 6168,
      "Ġtrig": 6169,
      "Ġclosest": 6170,
      "Ġscient": 6171,
      "Ġacknowled": 6172,
      "Ġofficially": 6173,
      "Ġdespairing": 6174,
      "Ġnauseous": 6175,
      "Ġbowl": 6176,
      "Ġsneak": 6177,
      "uits": 6178,
      "arant": 6179,
      "Ġcoat": 6180,
      "Ġhanded": 6181,
      "Ġminded": 6182,
      "Ġreactions": 6183,
      "Ġrubbish": 6184,
      "Ġgrocery": 6185,
      "Ġisrael": 6186,
      "Ġdick": 6187,
      "itate": 6188,
      "Ġtries": 6189,
      "Ġjudging": 6190,
      "Ġconcerns": 6191,
      "Ġcatching": 6192,
      "Ġstretch": 6193,
      "Ġcrossed": 6194,
      "Ġoctober": 6195,
      "Ġvintage": 6196,
      "Ġinability": 6197,
      "Ġvoid": 6198,
      "Ġcontinuing": 6199,
      "Ġvariety": 6200,
      "Ġclimb": 6201,
      "Ġunnecess": 6202,
      "Ġbb": 6203,
      "Ġgall": 6204,
      "Ġracing": 6205,
      "Ġfran": 6206,
      "Ġfinds": 6207,
      "Ġdrank": 6208,
      "Ġcentered": 6209,
      "hold": 6210,
      "Ġwhisper": 6211,
      "Ġfeminine": 6212,
      "Ġbummed": 6213,
      "Ġpotato": 6214,
      "ivers": 6215,
      "Ġder": 6216,
      "Ġguitar": 6217,
      "Ġboots": 6218,
      "Ġinvis": 6219,
      "Ġforgetting": 6220,
      "Ġhidden": 6221,
      "put": 6222,
      "Ġshaking": 6223,
      "Ġsyn": 6224,
      "Ġasks": 6225,
      "hhhh": 6226,
      "Ġimmensely": 6227,
      "Ġprincess": 6228,
      "Ġwished": 6229,
      "reh": 6230,
      "Ġlake": 6231,
      "Ġnav": 6232,
      "arded": 6233,
      "Ġscent": 6234,
      "Ġrealization": 6235,
      "Ġdeliver": 6236,
      "Ġmarch": 6237,
      "Ġhighlight": 6238,
      "Ġcomplicated": 6239,
      "Ġresentment": 6240,
      "Ġpotentially": 6241,
      "Ġauthors": 6242,
      "Ġassignment": 6243,
      "Ġtan": 6244,
      "Ġfb": 6245,
      "Ġwip": 6246,
      "Ġtrade": 6247,
      "Ġcreature": 6248,
      "Ġcalories": 6249,
      "Ġswall": 6250,
      "Ġantsy": 6251,
      "Ġselling": 6252,
      "Ġborder": 6253,
      "the": 6254,
      "Ġcling": 6255,
      "Ġwhereas": 6256,
      "Ġsets": 6257,
      "Ġbreaks": 6258,
      "Ġsimpl": 6259,
      "Ġcontractions": 6260,
      "list": 6261,
      "Ġcere": 6262,
      "oty": 6263,
      "Ġdoors": 6264,
      "Ġreminding": 6265,
      "Ġstepping": 6266,
      "Ġbullshit": 6267,
      "Ġunsettled": 6268,
      "Ġunfriendly": 6269,
      "Ġpil": 6270,
      "arian": 6271,
      "Ġyell": 6272,
      "Ġspell": 6273,
      "Ġflesh": 6274,
      "Ġunderstands": 6275,
      "Ġholly": 6276,
      "ordin": 6277,
      "Ġimagination": 6278,
      "Ġincrease": 6279,
      "Ġcampa": 6280,
      "Ġclouds": 6281,
      "Ġpsycholog": 6282,
      "Ġdisconnected": 6283,
      "men": 6284,
      "Ġ'": 6285,
      "ari": 6286,
      "Ġnoticing": 6287,
      "Ġincap": 6288,
      "Ġinsecurities": 6289,
      "Ġboost": 6290,
      "Ġunmotivated": 6291,
      "cs": 6292,
      "nat": 6293,
      "Ġcd": 6294,
      "Ġunhe": 6295,
      "Ġvast": 6296,
      "Ġspare": 6297,
      "Ġsurvi": 6298,
      "Ġadmin": 6299,
      "Ġconsequences": 6300,
      "Ġpaget": 6301,
      "ita": 6302,
      "abor": 6303,
      "Ġtrusted": 6304,
      "Ġqueen": 6305,
      "Ġextended": 6306,
      "Ġmarks": 6307,
      "Ġtypically": 6308,
      "Ġperiods": 6309,
      "ware": 6310,
      "Ġtread": 6311,
      "althy": 6312,
      "aken": 6313,
      "Ġfantasy": 6314,
      "ifest": 6315,
      "Ġstressful": 6316,
      "Ġpreparing": 6317,
      "Ġcrisis": 6318,
      "apt": 6319,
      "Ġiv": 6320,
      "Ġcars": 6321,
      "Ġinterpret": 6322,
      "Ġwalks": 6323,
      "ĠTw": 6324,
      "Ġestab": 6325,
      "Ġwardro": 6326,
      "Ġmobile": 6327,
      "Ġast": 6328,
      "Ġjon": 6329,
      "Ġtreating": 6330,
      "Ġsib": 6331,
      "Ġmanifest": 6332,
      "Ġmessed": 6333,
      "mission": 6334,
      "Ġsurroundings": 6335,
      "Ġlifetime": 6336,
      "Ġcatholic": 6337,
      "Ġagreed": 6338,
      "Ġfuzzy": 6339,
      "Ġfer": 6340,
      "Ġdow": 6341,
      "Ġsoph": 6342,
      "Ġexhib": 6343,
      "Ġmanager": 6344,
      "Ġguarant": 6345,
      "Ġflower": 6346,
      "Ġtrips": 6347,
      "Ġheavenly": 6348,
      "Ġtravelling": 6349,
      "Ġcommercial": 6350,
      "Ġhits": 6351,
      "erg": 6352,
      "Ġcats": 6353,
      "Ġpang": 6354,
      "Ġgest": 6355,
      "Ġknitting": 6356,
      "Ġinsist": 6357,
      "aping": 6358,
      "Ġdraft": 6359,
      "Ġinternal": 6360,
      "Ġpul": 6361,
      "ormed": 6362,
      "Ġrib": 6363,
      "Ġsheer": 6364,
      "Ġfamous": 6365,
      "umbling": 6366,
      "Ġcountries": 6367,
      "Ġwarning": 6368,
      "Ġcheeks": 6369,
      "Ġresources": 6370,
      "Ġshine": 6371,
      "illing": 6372,
      "Ġorange": 6373,
      "Ġabsolute": 6374,
      "Ġpresentation": 6375,
      "Ġdrinks": 6376,
      "Ġdropping": 6377,
      "Ġseparate": 6378,
      "Ġblanket": 6379,
      "Ġmisunderstood": 6380,
      "rier": 6381,
      "Ġtrim": 6382,
      "ander": 6383,
      "Ġvalues": 6384,
      "Ġcompanies": 6385,
      "Ġverb": 6386,
      "Ġencouragement": 6387,
      "Ġintentions": 6388,
      "Ġhalloween": 6389,
      "lection": 6390,
      "Ġugh": 6391,
      "Ġstamp": 6392,
      "Ġtraged": 6393,
      "ussy": 6394,
      "Ġador": 6395,
      "Ġcouples": 6396,
      "Ġflick": 6397,
      "Ġattempts": 6398,
      "Ġshadow": 6399,
      "Ġmixt": 6400,
      "Ġchaos": 6401,
      "Ġbritish": 6402,
      "Ġunappreciated": 6403,
      "Ġ?": 6404,
      "Ġfier": 6405,
      "Ġscept": 6406,
      "imate": 6407,
      "ulating": 6408,
      "Ġresponses": 6409,
      "Ġpagetitle": 6410,
      "LL": 6411,
      "lement": 6412,
      "Ġjim": 6413,
      "rian": 6414,
      "Ġactor": 6415,
      "Ġinsign": 6416,
      "Ġdressing": 6417,
      "gar": 6418,
      "has": 6419,
      "Ġsessions": 6420,
      "Ġappropriate": 6421,
      "Ġconserv": 6422,
      "Ġvisited": 6423,
      "Ġlegit": 6424,
      "Ġdepending": 6425,
      "aunt": 6426,
      "aker": 6427,
      "Ġoccup": 6428,
      "Ġharry": 6429,
      "Ġannounce": 6430,
      "Ġfragile": 6431,
      "hic": 6432,
      "ja": 6433,
      "ooo": 6434,
      "Ġsafer": 6435,
      "inks": 6436,
      "ifying": 6437,
      "Ġtherapist": 6438,
      "Ġreleased": 6439,
      "afe": 6440,
      "Ġeast": 6441,
      "Ġdose": 6442,
      "Ġearn": 6443,
      "Ġinvolve": 6444,
      "Ġcounting": 6445,
      "Ġdeveloping": 6446,
      "Ġappears": 6447,
      "ette": 6448,
      "Ġglamourous": 6449,
      "Ġting": 6450,
      "Ġgas": 6451,
      "Ġintend": 6452,
      "berry": 6453,
      "Ġregards": 6454,
      "Ġdivor": 6455,
      "Ġskinny": 6456,
      "Ġdealt": 6457,
      "Ġmotion": 6458,
      "Ġabandon": 6459,
      "Ġinferior": 6460,
      "ping": 6461,
      "rod": 6462,
      "Ġpocket": 6463,
      "Ġhonesty": 6464,
      "Ġunlike": 6465,
      "Ġinsignific": 6466,
      "Ġpant": 6467,
      "Ġyard": 6468,
      "Ġexcess": 6469,
      "Ġgrin": 6470,
      "Ġreads": 6471,
      "Ġfreely": 6472,
      "Ġapproaching": 6473,
      "Ġneighbors": 6474,
      "eral": 6475,
      "Ġnig": 6476,
      "Ġexh": 6477,
      "Ġcramp": 6478,
      "Ġpasses": 6479,
      "Ġreflection": 6480,
      "Ġmeditation": 6481,
      "Ġcritical": 6482,
      "ko": 6483,
      "Ġgender": 6484,
      "Ġken": 6485,
      "Ġbloated": 6486,
      "Ġprovided": 6487,
      "Ġtypical": 6488,
      "Ġlarg": 6489,
      "Ġremoved": 6490,
      "Ġtroubles": 6491,
      "Ġevidence": 6492,
      "Ġballs": 6493,
      "Ġjudgement": 6494,
      "Ġcategory": 6495,
      "Ġwardrobe": 6496,
      "han": 6497,
      "Ġtap": 6498,
      "Ġyay": 6499,
      "ils": 6500,
      "Ġcomparing": 6501,
      "apore": 6502,
      "Ġzero": 6503,
      "Ġtests": 6504,
      "Ġapology": 6505,
      "Ġspoken": 6506,
      "Ġexceptionally": 6507,
      "Ġsceptical": 6508,
      "rel": 6509,
      "Ġ.": 6510,
      "Ġsust": 6511,
      "Ġpac": 6512,
      "Ġvigorous": 6513,
      "Ġperpet": 6514,
      "Ġstores": 6515,
      "Ġmichael": 6516,
      "Ġpx": 6517,
      "Ġyellow": 6518,
      "Ġalien": 6519,
      "Ġentr": 6520,
      "Ġinstit": 6521,
      "Ġmary": 6522,
      "Ġcharity": 6523,
      "Ġdetach": 6524,
      "Ġpossess": 6525,
      "Ġpunch": 6526,
      "Ġoccasions": 6527,
      "Ġfits": 6528,
      "Ġbc": 6529,
      "Ġbio": 6530,
      "Ġrevel": 6531,
      "Ġoffers": 6532,
      "Ġsadly": 6533,
      "Ġhurry": 6534,
      "Ġmovements": 6535,
      "Ġfalls": 6536,
      "Ġproviding": 6537,
      "Ġjumping": 6538,
      "Ġassociated": 6539,
      "Ġticket": 6540,
      "gu": 6541,
      "Ġgal": 6542,
      "Ġegg": 6543,
      "Ġrhy": 6544,
      "Ġreasonably": 6545,
      "Ġquestioning": 6546,
      "Ġsarah": 6547,
      "Ġrequired": 6548,
      "Ġverge": 6549,
      "Ġrobbed": 6550,
      "Ġsacrific": 6551,
      "Ġlecture": 6552,
      "Ġchannel": 6553,
      "Ġcampaign": 6554,
      "Ġlargely": 6555,
      "ronic": 6556,
      "vas": 6557,
      "Ġcomedy": 6558,
      "Ġowners": 6559,
      "Ġclassic": 6560,
      "Ġdriver": 6561,
      "Ġcontroll": 6562,
      "Ġraising": 6563,
      "Ġattending": 6564,
      "Ġclarity": 6565,
      "Ġtheatre": 6566,
      "oul": 6567,
      "Ġconfusion": 6568,
      "Ġjoint": 6569,
      "Ġjumped": 6570,
      "Ġenthusiasm": 6571,
      "car": 6572,
      "Ġ!": 6573,
      "Ġsons": 6574,
      "Ġbf": 6575,
      "Ġdv": 6576,
      "Ġdess": 6577,
      "Ġexhaustion": 6578,
      "Ġinvisible": 6579,
      "erous": 6580,
      "orter": 6581,
      "Ġpresented": 6582,
      "iforn": 6583,
      "Ġsuffoc": 6584,
      "Ġtransform": 6585,
      "Ġgrandf": 6586,
      "Ġcircles": 6587,
      "Ġconsistently": 6588,
      "Ġexchange": 6589,
      "Ġguidance": 6590,
      "Ġtoilet": 6591,
      "Ġpills": 6592,
      "Ġsingapore": 6593,
      "space": 6594,
      "Ġlarger": 6595,
      "Ġspanish": 6596,
      "Ġgaze": 6597,
      "ayl": 6598,
      "Ġmere": 6599,
      "chan": 6600,
      "Ġsha": 6601,
      "Ġshade": 6602,
      "Ġconqu": 6603,
      "Ġsequ": 6604,
      "Ġproceed": 6605,
      "Ġentries": 6606,
      "Ġcurl": 6607,
      "Ġheavily": 6608,
      "Ġaggressive": 6609,
      "Ġseren": 6610,
      "ague": 6611,
      "Ġswing": 6612,
      "Ġzomb": 6613,
      "Ġtit": 6614,
      "Ġtid": 6615,
      "eter": 6616,
      "place": 6617,
      "Ġguessing": 6618,
      "Ġaddiction": 6619,
      "Ġpacked": 6620,
      "Ġprinci": 6621,
      "flies": 6622,
      "Ġsweaty": 6623,
      "Ġlipstick": 6624,
      "Ġbomb": 6625,
      "ona": 6626,
      "Ġpinterest": 6627,
      "Ġgid": 6628,
      "Ġcomprom": 6629,
      "Ġjoining": 6630,
      "Ġincor": 6631,
      "Ġfrustrating": 6632,
      "Ġinteraction": 6633,
      "Ġmusical": 6634,
      "Ġsufficient": 6635,
      "Ġphotog": 6636,
      "Ġmedium": 6637,
      "Ġcases": 6638,
      "Ġeffective": 6639,
      "Ġsmiled": 6640,
      "Ġathlet": 6641,
      "Ġeve": 6642,
      "Ġank": 6643,
      "rig": 6644,
      "Ġcrash": 6645,
      "Ġglimp": 6646,
      "Ġprayed": 6647,
      "Ġmillions": 6648,
      "Ġepisodes": 6649,
      "Ġcudd": 6650,
      "Ġcinem": 6651,
      "Ġsteady": 6652,
      "tr": 6653,
      "Ġell": 6654,
      "isc": 6655,
      "Ġendure": 6656,
      "Ġstandards": 6657,
      "Ġpeter": 6658,
      "Ġhalfway": 6659,
      "Ġgrades": 6660,
      "Ġhistor": 6661,
      "Ġordered": 6662,
      "Ġinitial": 6663,
      "Ġtemperature": 6664,
      "Ġknock": 6665,
      "Ġautomatically": 6666,
      "iques": 6667,
      "Ġsum": 6668,
      "Ġtrash": 6669,
      "iece": 6670,
      "Ġblast": 6671,
      "Ġinspire": 6672,
      "Ġnostalgia": 6673,
      "ĠWe": 6674,
      "ĠĠĠ": 6675,
      "Ġinitially": 6676,
      "Ġple": 6677,
      "Ġnons": 6678,
      "Ġbee": 6679,
      "Ġgam": 6680,
      "Ġraces": 6681,
      "illa": 6682,
      "agers": 6683,
      "Ġbridge": 6684,
      "Ġsalad": 6685,
      "Ġvirgin": 6686,
      "Ġmixture": 6687,
      "Ġsticking": 6688,
      "Ġlogic": 6689,
      "Ġoutlet": 6690,
      "Ġunited": 6691,
      "Ġacted": 6692,
      "Ġcontest": 6693,
      "ĠHa": 6694,
      "Ġpromises": 6695,
      "Ġnausea": 6696,
      "Ġhormones": 6697,
      "Ġcoast": 6698,
      "Ġenjoyable": 6699,
      "Ġcontinuous": 6700,
      "Ġbasket": 6701,
      "Ġpatterns": 6702,
      "Ġselected": 6703,
      "Ġinsignificant": 6704,
      "Ġbone": 6705,
      "Ġanal": 6706,
      "Ġterror": 6707,
      "Ġunderne": 6708,
      "Ġpossibilities": 6709,
      "Ġapril": 6710,
      "Ġprivilege": 6711,
      "Ġsurrounding": 6712,
      "Ġdepressing": 6713,
      "Ġintensity": 6714,
      "Ġunderneath": 6715,
      "Ġtoss": 6716,
      "enced": 6717,
      "icy": 6718,
      "Ġsocks": 6719,
      "Ġmargin": 6720,
      "Ġmeetings": 6721,
      "Ġunfold": 6722,
      "Ġlaws": 6723,
      "OT": 6724,
      "cence": 6725,
      "gency": 6726,
      "Ġflor": 6727,
      "Ġextend": 6728,
      "Ġdirector": 6729,
      "Ġxd": 6730,
      "Ġfloating": 6731,
      "Ġauthent": 6732,
      "Ġoccasional": 6733,
      "Ġalternate": 6734,
      "Ġdisrespected": 6735,
      "ml": 6736,
      "Ġtruck": 6737,
      "Ġprison": 6738,
      "Ġwherever": 6739,
      "Ġweekly": 6740,
      "Ġlists": 6741,
      "Ġcaliforn": 6742,
      "ĠMother": 6743,
      "Ġvictims": 6744,
      "Ġdebate": 6745,
      "Ġpredict": 6746,
      "ĠLOL": 6747,
      "Ġdessert": 6748,
      "equ": 6749,
      "nic": 6750,
      "Ġlj": 6751,
      "Ġdent": 6752,
      "icky": 6753,
      "Ġteenage": 6754,
      "Ġbutterflies": 6755,
      "Ġnaive": 6756,
      "Ġsket": 6757,
      "Ġinch": 6758,
      "sey": 6759,
      "roc": 6760,
      "Ġarts": 6761,
      "Ġmetal": 6762,
      "Ġuncertainty": 6763,
      "po": 6764,
      "Ġindian": 6765,
      "Ġcontinually": 6766,
      "Ġstructure": 6767,
      "Ġhates": 6768,
      "Ġponder": 6769,
      "Ġcarefully": 6770,
      "Ġkisses": 6771,
      "Ġrolling": 6772,
      "Ġltr": 6773,
      "Ġnicely": 6774,
      "AY": 6775,
      "Ġaid": 6776,
      "Ġbay": 6777,
      "Ġtheater": 6778,
      "Ġrent": 6779,
      "Ġrod": 6780,
      "road": 6781,
      "Ġtiming": 6782,
      "Ġbegins": 6783,
      "Ġconditions": 6784,
      "Ġprotected": 6785,
      "Ġbothering": 6786,
      "Ġtackle": 6787,
      "Ġsincerely": 6788,
      "Ġdrowning": 6789,
      "Ġetern": 6790,
      "urt": 6791,
      "Ġjustify": 6792,
      "Ġparis": 6793,
      "Ġtransfer": 6794,
      "Ġamericans": 6795,
      "Ġequal": 6796,
      "Ġnetwork": 6797,
      "Ġacademic": 6798,
      "girl": 6799,
      "Ġdim": 6800,
      "Ġstitch": 6801,
      "amas": 6802,
      "Ġoutdo": 6803,
      "Ġplays": 6804,
      "Ġcompreh": 6805,
      "Ġmidnight": 6806,
      "Ġgrandma": 6807,
      "Ġneglecting": 6808,
      "Ġdesigns": 6809,
      "Ġtraditional": 6810,
      "Ġacquaint": 6811,
      "Ġforcing": 6812,
      "amn": 6813,
      "Ġconce": 6814,
      "ago": 6815,
      "uction": 6816,
      "Ġsurge": 6817,
      "ublic": 6818,
      "Ġexpos": 6819,
      "Ġministry": 6820,
      "Ġpurpos": 6821,
      "Ġhundreds": 6822,
      "Ġaccording": 6823,
      "Ġtoy": 6824,
      "Ġrelative": 6825,
      "weight": 6826,
      "Ġwoken": 6827,
      "Ġheadaches": 6828,
      "Ġhealthier": 6829,
      "Ġdifficulty": 6830,
      "together": 6831,
      "Ġorganized": 6832,
      "Ġcapacity": 6833,
      "Ġboxes": 6834,
      "Ġportion": 6835,
      "Ġargue": 6836,
      "Ġalarm": 6837,
      "Ġdesigner": 6838,
      "Ġmuse": 6839,
      "Ġenorm": 6840,
      "Ġowner": 6841,
      "Ġexcuses": 6842,
      "Ġaches": 6843,
      "Ġcowork": 6844,
      "Ġhouses": 6845,
      "Ġplatform": 6846,
      "eline": 6847,
      "Ġdwell": 6848,
      "Ġpms": 6849,
      "stone": 6850,
      "Ġresort": 6851,
      "Ġflattered": 6852,
      "Ġparking": 6853,
      "Ġchristians": 6854,
      "ficial": 6855,
      "Ġsenses": 6856,
      "Ġbands": 6857,
      "Ġlifes": 6858,
      "keting": 6859,
      "Ġovert": 6860,
      "Ġadds": 6861,
      "Ġcompanion": 6862,
      "herent": 6863,
      "conscious": 6864,
      "Ġrenew": 6865,
      "Ġrhyth": 6866,
      "Ġhind": 6867,
      "Ġray": 6868,
      "illed": 6869,
      "Ġupl": 6870,
      "Ġcontain": 6871,
      "Ġdefensive": 6872,
      "Ġrefused": 6873,
      "Ġforgiveness": 6874,
      "Ġaffair": 6875,
      "Ġhugs": 6876,
      "Ġmercy": 6877,
      "Ġdollars": 6878,
      "Ġinjury": 6879,
      "Ġeconom": 6880,
      "inity": 6881,
      "Ġtoys": 6882,
      "Ġeaster": 6883,
      "ula": 6884,
      "Ġunst": 6885,
      "Ġblowing": 6886,
      "Ġcreation": 6887,
      "Ġdirections": 6888,
      "Ġstock": 6889,
      "Ġinternational": 6890,
      "Ġnoneth": 6891,
      "Ġinspiring": 6892,
      "Ġphotograp": 6893,
      "Ġbinge": 6894,
      "Ġps": 6895,
      "esy": 6896,
      "Ġrational": 6897,
      "Ġweary": 6898,
      "Ġdownload": 6899,
      "Ġmotor": 6900,
      "Ġlinks": 6901,
      "Ġruin": 6902,
      "Ġwander": 6903,
      "ban": 6904,
      "lies": 6905,
      "Ġaltogether": 6906,
      "Ġresolve": 6907,
      "Ġinsult": 6908,
      "Ġretreat": 6909,
      "Ġforest": 6910,
      "Ġavoided": 6911,
      "Ġmilitary": 6912,
      "Ġexists": 6913,
      "Ġreplaced": 6914,
      "Ġcravings": 6915,
      "bow": 6916,
      "tered": 6917,
      "Ġta": 6918,
      "Ġeu": 6919,
      "Ġstumble": 6920,
      "Ġrum": 6921,
      "Ġsavi": 6922,
      "Ġtheirs": 6923,
      "Ġrealistic": 6924,
      "Ġschem": 6925,
      "Ġentering": 6926,
      "Ġcirc": 6927,
      "Ġperceive": 6928,
      "Ġnonetheless": 6929,
      "ras": 6930,
      "Ġted": 6931,
      "Ġmort": 6932,
      "Ġbaking": 6933,
      "Ġgosp": 6934,
      "anged": 6935,
      "Ġfacts": 6936,
      "Ġsubjects": 6937,
      "????": 6938,
      "hi": 6939,
      "Ġsigned": 6940,
      "Ġmig": 6941,
      "anny": 6942,
      "Ġstairs": 6943,
      "Ġrat": 6944,
      "Ġexec": 6945,
      "Ġstops": 6946,
      "Ġrooms": 6947,
      "Ġadvance": 6948,
      "Ġdegrees": 6949,
      "Ġmountains": 6950,
      "Ġeconomy": 6951,
      "Ġjacket": 6952,
      "Ġlens": 6953,
      "Ġpacking": 6954,
      "oria": 6955,
      "Ġabit": 6956,
      "Ġrested": 6957,
      "urist": 6958,
      "Ġproduction": 6959,
      "ifting": 6960,
      "Ġroommate": 6961,
      "books": 6962,
      "Ġmassage": 6963,
      "zer": 6964,
      "Ġrice": 6965,
      "Ġadapt": 6966,
      "Ġincome": 6967,
      "Ġsubconscious": 6968,
      "Ġabsor": 6969,
      "Ġdeserved": 6970,
      "Ġcommunic": 6971,
      "Ġrisks": 6972,
      "Ġmagical": 6973,
      "Ġnutr": 6974,
      "bage": 6975,
      "cul": 6976,
      "uition": 6977,
      "Ġthri": 6978,
      "Ġwhim": 6979,
      "Ġreven": 6980,
      "Ġstal": 6981,
      "Ġalbe": 6982,
      "Ġactors": 6983,
      "Ġscrap": 6984,
      "aph": 6985,
      "Ġcookie": 6986,
      "Ġgraduation": 6987,
      "fty": 6988,
      "point": 6989,
      "Ġtatt": 6990,
      "Ġcott": 6991,
      "Ġdw": 6992,
      "Ġcanada": 6993,
      "Ġdisorder": 6994,
      "Ġafterward": 6995,
      "Ġscore": 6996,
      "Ġflood": 6997,
      "Ġhoriz": 6998,
      "Ġbetray": 6999,
      "Ġsuggested": 7000,
      "Ġbell": 7001,
      "Ġles": 7002,
      "Ġinex": 7003,
      "Ġdee": 7004,
      "Ġremains": 7005,
      "bert": 7006,
      "Ġnewsp": 7007,
      "Ġmoral": 7008,
      "Ġflip": 7009,
      "Ġesp": 7010,
      "Ġburned": 7011,
      "Ġhoney": 7012,
      "Ġmuslim": 7013,
      "Ġdescription": 7014,
      "Ġevalu": 7015,
      "Ġimmediate": 7016,
      "porate": 7017,
      "Ġoccurred": 7018,
      "Ġcounsel": 7019,
      "Ġlit": 7020,
      "Ġstere": 7021,
      "Ġyelling": 7022,
      "Ġnotion": 7023,
      "Ġbabys": 7024,
      "Ġsmells": 7025,
      "Ġcynical": 7026,
      "Ġcalifornia": 7027,
      "Ġalbeit": 7028,
      "lie": 7029,
      "off": 7030,
      "Ġtense": 7031,
      "Ġserved": 7032,
      "Ġrepublic": 7033,
      "Ġadventures": 7034,
      "Ġfestival": 7035,
      "ĠCh": 7036,
      "Ġliterature": 7037,
      "Ġtemporary": 7038,
      "Ġsemi": 7039,
      "Ġsenior": 7040,
      "Ġimproved": 7041,
      "uted": 7042,
      "Ġship": 7043,
      "Ġspaces": 7044,
      "Ġgenre": 7045,
      "Ġdisappeared": 7046,
      "Ġexploring": 7047,
      "Ġcomforting": 7048,
      "Ġapproached": 7049,
      "Ġgospel": 7050,
      "iable": 7051,
      "Ġfasc": 7052,
      "outs": 7053,
      "eping": 7054,
      "Ġglory": 7055,
      "Ġflag": 7056,
      "Ġlocation": 7057,
      "Ġguarantee": 7058,
      "iance": 7059,
      "rors": 7060,
      "Ġreck": 7061,
      "Ġyo": 7062,
      "idal": 7063,
      "Ġroy": 7064,
      "Ġupload": 7065,
      "Ġrelev": 7066,
      "Ġpermission": 7067,
      "Ġjog": 7068,
      "Ġemphas": 7069,
      "Ġembar": 7070,
      "Ġstands": 7071,
      "Ġstopping": 7072,
      "Ġbelonging": 7073,
      "Ġignorance": 7074,
      "?!": 7075,
      "vably": 7076,
      "xual": 7077,
      "Ġpian": 7078,
      "riv": 7079,
      "Ġplastic": 7080,
      "Ġscott": 7081,
      "Ġhandful": 7082,
      "Ġslee": 7083,
      "Ġmoods": 7084,
      "Ġtreats": 7085,
      "Ġsecrets": 7086,
      "Ġsuggestions": 7087,
      "Ġgraduate": 7088,
      "Ġapplied": 7089,
      "Ġunbelievably": 7090,
      "rid": 7091,
      "Ġfeature": 7092,
      "ern": 7093,
      "ulting": 7094,
      "Ġneut": 7095,
      "Ġgiveaway": 7096,
      "Ġparag": 7097,
      "Ġfiguring": 7098,
      "Ġtreasure": 7099,
      "Ġbudget": 7100,
      "Ġguests": 7101,
      "Ġdisorient": 7102,
      "Ġcigare": 7103,
      "Ġthumb": 7104,
      "Ġinjust": 7105,
      "Ġstim": 7106,
      "ami": 7107,
      "Ġintr": 7108,
      "arer": 7109,
      "Ġpartners": 7110,
      "Ġelder": 7111,
      "Ġslightest": 7112,
      "Ġdrift": 7113,
      "Ġessay": 7114,
      "Ġbudd": 7115,
      "Ġgiddy": 7116,
      "Ġplug": 7117,
      "Ġhasn": 7118,
      "ĠIs": 7119,
      "Ġaddict": 7120,
      "Ġsickness": 7121,
      "ĠTH": 7122,
      "Ġroller": 7123,
      "Ġthoughtful": 7124,
      "Ġvegan": 7125,
      "Ġassess": 7126,
      "Ġbehave": 7127,
      "Ġcentre": 7128,
      "hhh": 7129,
      "Ġarguments": 7130,
      "Ġeggs": 7131,
      "Ġdownt": 7132,
      "Ġpier": 7133,
      "Ġgaining": 7134,
      "Ġreju": 7135,
      "Ġstroll": 7136,
      "Ġworker": 7137,
      "Ġslide": 7138,
      "Ġeyel": 7139,
      "Ġhusbands": 7140,
      "Ġexamination": 7141,
      "Ġsteve": 7142,
      "Ġworkouts": 7143,
      "Ġfulfilling": 7144,
      "Ġfatigue": 7145,
      "Ġtattoo": 7146,
      "care": 7147,
      "mare": 7148,
      "Ġatom": 7149,
      "Ġcanvas": 7150,
      "Ġactively": 7151,
      "osition": 7152,
      "Ġcontentment": 7153,
      "Ġrefres": 7154,
      "Ġentertainment": 7155,
      "Ġchatting": 7156,
      "Ġrepeatedly": 7157,
      "iate": 7158,
      "Ġce": 7159,
      "Ġrd": 7160,
      "Ġchuck": 7161,
      "Ġcovers": 7162,
      "bbish": 7163,
      "Ġcleaned": 7164,
      "Ġachieving": 7165,
      "Ġcelebration": 7166,
      "Ġcapital": 7167,
      "Ġattraction": 7168,
      "Ġpriority": 7169,
      "Ġthousand": 7170,
      "Ġtickets": 7171,
      "gent": 7172,
      "lr": 7173,
      "Ġlash": 7174,
      "Ġpuzz": 7175,
      "verted": 7176,
      "Ġstiff": 7177,
      "Ġrot": 7178,
      "Ġabroad": 7179,
      "Ġadren": 7180,
      "Ġcaffe": 7181,
      "Ġattended": 7182,
      "Ġjuices": 7183,
      "nis": 7184,
      "vis": 7185,
      "oming": 7186,
      "Ġstab": 7187,
      "Ġstable": 7188,
      "ophy": 7189,
      "redient": 7190,
      "resp": 7191,
      "Ġappet": 7192,
      "aped": 7193,
      "Ġsuccessfully": 7194,
      "Ġcompliments": 7195,
      "Ġmotherhood": 7196,
      "Ġediting": 7197,
      "Ġrecognized": 7198,
      "Ġingredient": 7199,
      "Ġtragedy": 7200,
      "'d": 7201,
      "Ġwre": 7202,
      "Ġwrest": 7203,
      "Ġbust": 7204,
      "Ġjav": 7205,
      "Ġquilt": 7206,
      "Ġhandling": 7207,
      "Ġshoe": 7208,
      "Ġdelivery": 7209,
      "Ġsnobbish": 7210,
      "Ġparagraph": 7211,
      "gling": 7212,
      "kk": 7213,
      "Ġmate": 7214,
      "ora": 7215,
      "utter": 7216,
      "Ġabund": 7217,
      "aren": 7218,
      "Ġdialog": 7219,
      "Ġdoubts": 7220,
      "Ġflaws": 7221,
      "Ġcheerful": 7222,
      "Ġcontrast": 7223,
      "Ġinfection": 7224,
      "ford": 7225,
      "Ġiphone": 7226,
      "Ġari": 7227,
      "Ġhaunt": 7228,
      "Ġblues": 7229,
      "Ġcalmer": 7230,
      "Ġtorture": 7231,
      "Ġsalt": 7232,
      "Ġshops": 7233,
      "Ġattacks": 7234,
      "Ġnep": 7235,
      "Ġdemand": 7236,
      "Ġnovels": 7237,
      "ville": 7238,
      "Ġfif": 7239,
      "Ġgir": 7240,
      "lym": 7241,
      "ferences": 7242,
      "pest": 7243,
      "Ġpainted": 7244,
      "Ġmarketing": 7245,
      "Ġpoorly": 7246,
      "Ġnewborn": 7247,
      "Ġincapable": 7248,
      "Ġverbally": 7249,
      "Ġrejuven": 7250,
      "life": 7251,
      "Ġtied": 7252,
      "Ġtheory": 7253,
      "Ġdirt": 7254,
      "Ġraining": 7255,
      "Ġgram": 7256,
      "Ġnightmare": 7257,
      "Ġglut": 7258,
      "Ġinfo": 7259,
      "Ġimmature": 7260,
      "Ġwashed": 7261,
      "Ġventure": 7262,
      "Ġprimary": 7263,
      "ĠWhat": 7264,
      "Ġquarter": 7265,
      "fice": 7266,
      "Ġpatch": 7267,
      "Ġscan": 7268,
      "Ġchildish": 7269,
      "Ġmiracle": 7270,
      "Ġautumn": 7271,
      "Ġofficial": 7272,
      "cake": 7273,
      "ded": 7274,
      "elve": 7275,
      "Ġsting": 7276,
      "agger": 7277,
      "Ġdemands": 7278,
      "Ġjewel": 7279,
      "Ġgrip": 7280,
      "Ġaustralia": 7281,
      "Ġadminist": 7282,
      "wife": 7283,
      "inating": 7284,
      "Ġsed": 7285,
      "ancing": 7286,
      "Ġrein": 7287,
      "rocious": 7288,
      "emp": 7289,
      "Ġresc": 7290,
      "Ġbrat": 7291,
      "Ġbuff": 7292,
      "Ġurl": 7293,
      "Ġmentioning": 7294,
      "Ġcheek": 7295,
      "Ġresource": 7296,
      "Ġensure": 7297,
      "Ġprejudiced": 7298,
      "Ġgrandfather": 7299,
      "Ġzombie": 7300,
      "eous": 7301,
      "Ġrab": 7302,
      "Ġjustified": 7303,
      "ortion": 7304,
      "Ġimpol": 7305,
      "Ġelev": 7306,
      "Ġpurely": 7307,
      "Ġseverely": 7308,
      "Ġlayers": 7309,
      "Ġoriginally": 7310,
      "Ġunhealthy": 7311,
      "house": 7312,
      "sion": 7313,
      "Ġlou": 7314,
      "Ġliqu": 7315,
      "Ġwouldve": 7316,
      "Ġdisney": 7317,
      "ief": 7318,
      "igning": 7319,
      "Ġpartially": 7320,
      "Ġnewly": 7321,
      "Ġperfection": 7322,
      "Ġmanagement": 7323,
      "Ġemployees": 7324,
      "Ġpublishing": 7325,
      "Ġryan": 7326,
      "Ġgrandparent": 7327,
      "Ġauthentic": 7328,
      "Ġrhythm": 7329,
      "Ġadrenal": 7330,
      "Ġ..": 7331,
      "ndr": 7332,
      "ena": 7333,
      "Ġdates": 7334,
      "Ġreference": 7335,
      "Ġstuffed": 7336,
      "Ġinformed": 7337,
      "Ġimagining": 7338,
      "Ġlaun": 7339,
      "Ġpolite": 7340,
      "Ġstrike": 7341,
      "Ġelectric": 7342,
      "Ġunusual": 7343,
      "Ġcitizens": 7344,
      "Ġrefreshing": 7345,
      "ole": 7346,
      "Ġmature": 7347,
      "Ġpam": 7348,
      "Ġjaw": 7349,
      "Ġstruck": 7350,
      "Ġelements": 7351,
      "Ġglor": 7352,
      "Ġdisco": 7353,
      "Ġboot": 7354,
      "Ġtends": 7355,
      "Ġkissing": 7356,
      "Ġconsciousness": 7357,
      "pers": 7358,
      "Ġpussy": 7359,
      "athan": 7360,
      "ucky": 7361,
      "Ġvegg": 7362,
      "Ġburnt": 7363,
      "Ġconnections": 7364,
      "Ġdemocr": 7365,
      "Ġreplace": 7366,
      "Ġoverwhelmingly": 7367,
      "Ġaccomplishments": 7368,
      "Ġunnecessary": 7369,
      "Ġsofa": 7370,
      "Ġmechan": 7371,
      "Ġroles": 7372,
      "arts": 7373,
      "Ġdesigned": 7374,
      "Ġorganic": 7375,
      "Ġintroduce": 7376,
      "Ġtoddler": 7377,
      "Ġnonsense": 7378,
      "Ġglow": 7379,
      "Ġdefinition": 7380,
      "Ġcaress": 7381,
      "Ġentertaining": 7382,
      "ĠCan": 7383,
      "Ġsacrifice": 7384,
      "Ġignorant": 7385,
      "Ġdestroyed": 7386,
      "Ġtastes": 7387,
      "Ġtremendously": 7388,
      "Ġimpolite": 7389,
      "aid": 7390,
      "oe": 7391,
      "Ġtin": 7392,
      "rey": 7393,
      "Ġhaw": 7394,
      "Ġuber": 7395,
      "Ġyarn": 7396,
      "Ġmindset": 7397,
      "Ġpointless": 7398,
      "Ġvictory": 7399,
      "Ġspeaks": 7400,
      "Ġpractical": 7401,
      "Ġresponded": 7402,
      "Ġachievement": 7403,
      "Ġundes": 7404,
      "Ġexpert": 7405,
      "malink": 7406,
      "Ġipod": 7407,
      "Ġbastard": 7408,
      "oing": 7409,
      "te": 7410,
      "wear": 7411,
      "Ġthread": 7412,
      "ativity": 7413,
      "Ġknit": 7414,
      "Ġchips": 7415,
      "Ġenlight": 7416,
      "Ġawa": 7417,
      "Ġworksh": 7418,
      "Ġvalent": 7419,
      "ords": 7420,
      "www": 7421,
      "Ġalongside": 7422,
      "Ġaccused": 7423,
      "Ġaccompan": 7424,
      "Ġtechniques": 7425,
      "Ġdiscipline": 7426,
      "ĠTwitter": 7427,
      "nit": 7428,
      "pes": 7429,
      "Ġoc": 7430,
      "erve": 7431,
      "Ġimper": 7432,
      "Ġattrib": 7433,
      "Ġupdates": 7434,
      "Ġpatri": 7435,
      "Ġfixed": 7436,
      "Ġtweets": 7437,
      "Ġessential": 7438,
      "Ġdebt": 7439,
      "Ġclimbing": 7440,
      "Ġgrabbed": 7441,
      "Ġfeatures": 7442,
      "gen": 7443,
      "iers": 7444,
      "jour": 7445,
      "priv": 7446,
      "eph": 7447,
      "Ġadoring": 7448,
      "achel": 7449,
      "Ġthru": 7450,
      "Ġpermalink": 7451,
      "Ġrandomly": 7452,
      "formed": 7453,
      "Ġmystery": 7454,
      "Ġprofoundly": 7455,
      "Ġlust": 7456,
      "otely": 7457,
      "acles": 7458,
      "Ġjar": 7459,
      "Ġremotely": 7460,
      "Ġconfusing": 7461,
      "Ġroots": 7462,
      "Ġuncond": 7463,
      "Ġimprovement": 7464,
      "Ġassignments": 7465,
      "vy": 7466,
      "athing": 7467,
      "Ġsooth": 7468,
      "Ġwester": 7469,
      "Ġlocked": 7470,
      "Ġunjust": 7471,
      "Ġspont": 7472,
      "Ġedit": 7473,
      "Ġseasons": 7474,
      "Ġtradition": 7475,
      "Ġbreastfe": 7476,
      "Ġdedicated": 7477,
      "Ġvillage": 7478,
      "Ġclinic": 7479,
      "iation": 7480,
      "Ġtel": 7481,
      "Ġbye": 7482,
      "agram": 7483,
      "Ġgray": 7484,
      "ionship": 7485,
      "Ġangst": 7486,
      "Ġsweating": 7487,
      "Ġloop": 7488,
      "Ġirrational": 7489,
      "Ġadmir": 7490,
      "Ġdarn": 7491,
      "Ġrapid": 7492,
      "Ġbaseball": 7493,
      "bes": 7494,
      "cling": 7495,
      "erie": 7496,
      "Ġcuri": 7497,
      "lee": 7498,
      "olar": 7499,
      "Ġquil": 7500,
      "Ġquotes": 7501,
      "Ġstring": 7502,
      "Ġscare": 7503,
      "Ġbegging": 7504,
      "Ġhumble": 7505,
      "istics": 7506,
      "Ġsecondary": 7507,
      "Ġdawn": 7508,
      "Ġdenied": 7509,
      "Ġgeorge": 7510,
      "Ġcherish": 7511,
      "Ġcivil": 7512,
      "Ġadorable": 7513,
      "Ġpiano": 7514,
      "Ġtail": 7515,
      "Ġwrist": 7516,
      "Ġdub": 7517,
      "Ġpoo": 7518,
      "Ġshining": 7519,
      "amin": 7520,
      "Ġchunk": 7521,
      "Ġmast": 7522,
      "Ġmasters": 7523,
      "crast": 7524,
      "Ġinevit": 7525,
      "Ġkorean": 7526,
      "Ġtact": 7527,
      "Ġtoe": 7528,
      "Ġpess": 7529,
      "Ġpitch": 7530,
      "Ġroof": 7531,
      "Ġexten": 7532,
      "Ġleather": 7533,
      "Ġevenings": 7534,
      "Ġdiary": 7535,
      "Ġclosing": 7536,
      "Ġsinger": 7537,
      "Ġcollap": 7538,
      "Ġcafe": 7539,
      "Ġpolitic": 7540,
      "Ġcontributing": 7541,
      "Ġrelevant": 7542,
      "Ġolym": 7543,
      "Ġhills": 7544,
      "Ġcure": 7545,
      "ste": 7546,
      "Ġnamed": 7547,
      "Ġsevere": 7548,
      "Ġprocrast": 7549,
      "Ġbelt": 7550,
      "Ġbran": 7551,
      "Ġdreamed": 7552,
      "Ġadvoc": 7553,
      "Ġdemanding": 7554,
      "Ġera": 7555,
      "Ġdigg": 7556,
      "Ġaccidentally": 7557,
      "Ġnetwor": 7558,
      "Ġdecorations": 7559,
      "Ġuninsp": 7560,
      "Ġtutor": 7561,
      "gie": 7562,
      "Ġ6": 7563,
      "Ġmush": 7564,
      "Ġbul": 7565,
      "Ġlump": 7566,
      "isation": 7567,
      "Ġforum": 7568,
      "Ġrh": 7569,
      "Ġnest": 7570,
      "Ġexpectation": 7571,
      "ĠNot": 7572,
      "Ġlifted": 7573,
      "Ġattachment": 7574,
      "Ġdiscussed": 7575,
      "Ġsiblings": 7576,
      "Ġrevenge": 7577,
      "ON": 7578,
      "nel": 7579,
      "Ġhmm": 7580,
      "Ġitd": 7581,
      "Ġchasing": 7582,
      "Ġdeciding": 7583,
      "Ġintimate": 7584,
      "ĠHe": 7585,
      "Ġamounts": 7586,
      "Ġupdated": 7587,
      "Ġsafely": 7588,
      "Ġapplying": 7589,
      "Ġcousins": 7590,
      "Ġmutual": 7591,
      "Ġborrow": 7592,
      "private": 7593,
      "Ġ;": 7594,
      "Ġtuck": 7595,
      "Ġluc": 7596,
      "aning": 7597,
      "Ġlikeable": 7598,
      "Ġrut": 7599,
      "Ġblogged": 7600,
      "Ġcleans": 7601,
      "Ġinstant": 7602,
      "Ġexpand": 7603,
      "Ġcreatures": 7604,
      "ission": 7605,
      "Ġnegativity": 7606,
      "Ġstrive": 7607,
      "Ġfortune": 7608,
      "Ġpumped": 7609,
      "Ġobsessed": 7610,
      "Ġdiagnosis": 7611,
      "AT": 7612,
      "za": 7613,
      "Ġwig": 7614,
      "Ġbake": 7615,
      "iser": 7616,
      "Ġyummy": 7617,
      "Ġisprivate": 7618,
      "lock": 7619,
      "Ġremaining": 7620,
      "Ġdowns": 7621,
      "Ġfunk": 7622,
      "Ġturkey": 7623,
      "Ġachy": 7624,
      "Ġbars": 7625,
      "Ġlandsc": 7626,
      "Ġpackage": 7627,
      "Ġstyles": 7628,
      "gt": 7629,
      "ih": 7630,
      "Ġchain": 7631,
      "loaded": 7632,
      "ĠHope": 7633,
      "Ġdiscussions": 7634,
      "Ġboundaries": 7635,
      "Ġtraum": 7636,
      "Ġthighs": 7637,
      "Ġnutrition": 7638,
      "Ġstereoty": 7639,
      "Ġpessim": 7640,
      "ji": 7641,
      "Ġsans": 7642,
      "Ġanth": 7643,
      "Ġconven": 7644,
      "Ġtheyd": 7645,
      "Ġincons": 7646,
      "Ġassure": 7647,
      "Ġdefine": 7648,
      "Ġrainy": 7649,
      "Ġlifting": 7650,
      "Ġgarbage": 7651,
      "Ġbubble": 7652,
      "Ġclosely": 7653,
      "Ġadoption": 7654,
      "ws": 7655,
      "Ġira": 7656,
      "Ġtub": 7657,
      "Ġfought": 7658,
      "inal": 7659,
      "Ġferocious": 7660,
      "sem": 7661,
      "Ġrising": 7662,
      "ctions": 7663,
      "Ġchase": 7664,
      "Ġcozy": 7665,
      "Ġdownright": 7666,
      "Ġtouches": 7667,
      "Ġprotective": 7668,
      "Ġspoil": 7669,
      "Ġshallow": 7670,
      "Ġconsuming": 7671,
      "Ġchemo": 7672,
      "Ġcrawl": 7673,
      "Ġwaters": 7674,
      "Ġdeepest": 7675,
      "utions": 7676,
      "Ġdisaster": 7677,
      "Ġuses": 7678,
      "Ġidk": 7679,
      "Ġappeared": 7680,
      "Ġillustr": 7681,
      "Ġthankfully": 7682,
      "Ġtransport": 7683,
      "Ġencountered": 7684,
      "Ġdivorce": 7685,
      "nie": 7686,
      "Ġfeared": 7687,
      "Ġchip": 7688,
      "Ġblaming": 7689,
      "Ġreasonable": 7690,
      "Ġobst": 7691,
      "Ġapathetic": 7692,
      "Ġcomforted": 7693,
      "Ġdenial": 7694,
      "Ġessentially": 7695,
      "iam": 7696,
      "Ġinh": 7697,
      "Ġcomfy": 7698,
      "Ġarrog": 7699,
      "Ġcoaster": 7700,
      "Ġslower": 7701,
      "Ġterrit": 7702,
      "Ġjoe": 7703,
      "Ġhobby": 7704,
      "Ġcheat": 7705,
      "Ġhomem": 7706,
      "Ġtemple": 7707,
      "Ġprotest": 7708,
      "Ġinsanely": 7709,
      "Ġsubtle": 7710,
      "Ġsurvived": 7711,
      "ES": 7712,
      "eland": 7713,
      "Ġsup": 7714,
      "urd": 7715,
      "ears": 7716,
      "Ġresident": 7717,
      "Ġpercent": 7718,
      "ĠIm": 7719,
      "Ġveg": 7720,
      "Ġveins": 7721,
      "Ġmarvel": 7722,
      "Ġfreaked": 7723,
      "ĠHow": 7724,
      "Ġdads": 7725,
      "Ġsooooo": 7726,
      "Ġintroduced": 7727,
      "Ġgathering": 7728,
      "tiny": 7729,
      "Ġfitting": 7730,
      "Ġupper": 7731,
      "Ġdiab": 7732,
      "Ġearned": 7733,
      "Ġintervention": 7734,
      "Ġfourth": 7735,
      "Ġsilver": 7736,
      "Ġupdating": 7737,
      "Ġtracks": 7738,
      "Ġpurchased": 7739,
      "lam": 7740,
      "Ġwol": 7741,
      "Ġbush": 7742,
      "ndays": 7743,
      "Ġbeast": 7744,
      "Ġfraud": 7745,
      "ĠHave": 7746,
      "Ġrequires": 7747,
      "Ġpursuing": 7748,
      "Ġsplit": 7749,
      "Ġmurder": 7750,
      "Ġcandidate": 7751,
      "bid": 7752,
      "hop": 7753,
      "iot": 7754,
      "ng": 7755,
      "Ġsir": 7756,
      "ston": 7757,
      "Ġvit": 7758,
      "Ġoverd": 7759,
      "Ġcarol": 7760,
      "Ġfuneral": 7761,
      "Ġempath": 7762,
      "Ġdining": 7763,
      "Ġlimits": 7764,
      "Ġresponding": 7765,
      "Ġsavior": 7766,
      "Ġiraq": 7767,
      "Ġwings": 7768,
      "Ġstem": 7769,
      "Ġanime": 7770,
      "Ġarmy": 7771,
      "Ġwaist": 7772,
      "Ġfactor": 7773,
      "Ġrepair": 7774,
      "Ġprivacy": 7775,
      "Ġprograms": 7776,
      "Ġbenign": 7777,
      "Ġbreasts": 7778,
      "Ġfrozen": 7779,
      "Ġdetached": 7780,
      "Ġgirly": 7781,
      "AN": 7782,
      "Ġtie": 7783,
      "Ġthirty": 7784,
      "Ġox": 7785,
      "stic": 7786,
      "Ġstays": 7787,
      "acement": 7788,
      "Ġjess": 7789,
      "Ġcongr": 7790,
      "Ġpoison": 7791,
      "Ġaddicted": 7792,
      "Ġretro": 7793,
      "Ġgolden": 7794,
      "Ġdepths": 7795,
      "Ġglimpse": 7796,
      "Ġuninspired": 7797,
      "but": 7798,
      "ias": 7799,
      "Ġfaint": 7800,
      "Ġdou": 7801,
      "itled": 7802,
      "ario": 7803,
      "Ġasp": 7804,
      "Ġwelcoming": 7805,
      "Ġqualities": 7806,
      "Ġrepeating": 7807,
      "Ġalternative": 7808,
      "Ġpillow": 7809,
      "Ġpoems": 7810,
      "Ġreferring": 7811,
      "Ġarrange": 7812,
      "Ġprofessor": 7813,
      "Ġenemy": 7814,
      "Ġdemonstr": 7815,
      "Ġeuph": 7816,
      "Ġgrandparents": 7817,
      "Ġts": 7818,
      "inations": 7819,
      "Ġsanta": 7820,
      "Ġgang": 7821,
      "Ġink": 7822,
      "isy": 7823,
      "Ġknife": 7824,
      "Ġsew": 7825,
      "Ġcoin": 7826,
      "Ġgraph": 7827,
      "ĠNow": 7828,
      "Ġrecognition": 7829,
      "Ġsatisfy": 7830,
      "obile": 7831,
      "Ġwandering": 7832,
      "Ġfirmly": 7833,
      "full": 7834,
      "kers": 7835,
      "lan": 7836,
      "Ġaust": 7837,
      "Ġruss": 7838,
      "Ġalter": 7839,
      "abby": 7840,
      "Ġspouse": 7841,
      "Ġscal": 7842,
      "Ġvehic": 7843,
      "ysis": 7844,
      "Ġpracticing": 7845,
      "Ġdaniel": 7846,
      "Ġdrops": 7847,
      "Ġdependent": 7848,
      "Ġindependence": 7849,
      "Ġcreeping": 7850,
      "Ġembarrassment": 7851,
      "Ġdisrespect": 7852,
      "Ġleadership": 7853,
      "nda": 7854,
      "stream": 7855,
      "Ġgenius": 7856,
      "Ġconsci": 7857,
      "Ġholes": 7858,
      "Ġarticulate": 7859,
      "Ġdearly": 7860,
      "Ġconsumed": 7861,
      "Ġsignificantly": 7862,
      "Ġintentionally": 7863,
      "Ġcuddle": 7864,
      "Ġcontemplating": 7865,
      "Ġunusually": 7866,
      "Ġexhilar": 7867,
      "bab": 7868,
      "bles": 7869,
      "Ġtank": 7870,
      "inis": 7871,
      "Ġsoc": 7872,
      "Ġambit": 7873,
      "Ġawak": 7874,
      "Ġcomple": 7875,
      "Ġimpul": 7876,
      "Ġours": 7877,
      "Ġscold": 7878,
      "Ġslap": 7879,
      "Ġcreepy": 7880,
      "ĠMay": 7881,
      "Ġhangover": 7882,
      "Ġsteam": 7883,
      "Ġconsistent": 7884,
      "Ġenthusiastic": 7885,
      "Ġcinema": 7886,
      "Ġak": 7887,
      "Ġramb": 7888,
      "Ġshiny": 7889,
      "Ġrelation": 7890,
      "Ġtwinge": 7891,
      "Ġsymb": 7892,
      "Ġinfert": 7893,
      "Ġdecidedly": 7894,
      "Ġchores": 7895,
      "Ġsmarter": 7896,
      "Ġheartbreak": 7897,
      "Ġtesting": 7898,
      "Ġauthority": 7899,
      "Ġexcluded": 7900,
      "Ġoutsider": 7901,
      "Ġneutral": 7902,
      "hand": 7903,
      "mill": 7904,
      "Ġtent": 7905,
      "omet": 7906,
      "Ġinput": 7907,
      "Ġrug": 7908,
      "orted": 7909,
      "Ġyearning": 7910,
      "Ġslim": 7911,
      "Ġsensations": 7912,
      "ek": 7913,
      "Ġstol": 7914,
      "Ġcomic": 7915,
      "Ġproof": 7916,
      "Ġclich": 7917,
      "Ġforehead": 7918,
      "Ġanswering": 7919,
      "Ġtexts": 7920,
      "Ġchemical": 7921,
      "Ġportray": 7922,
      "Ġpolicy": 7923,
      "Ġcaffeine": 7924,
      "Ġrejuvenated": 7925,
      "lon": 7926,
      "itudes": 7927,
      "ida": 7928,
      "Ġunac": 7929,
      "arest": 7930,
      "Ġinsert": 7931,
      "Ġinsurance": 7932,
      "Ġsins": 7933,
      "rrrr": 7934,
      "Ġinstagram": 7935,
      "Ġpopulation": 7936,
      "Ġsounding": 7937,
      "Ġstraw": 7938,
      "Ġprotection": 7939,
      "Ġdesperation": 7940,
      "Ġeducated": 7941,
      "Ġremarks": 7942,
      "Ġdelete": 7943,
      "ios": 7944,
      "vial": 7945,
      "Ġbik": 7946,
      "Ġdrew": 7947,
      "Ġsolo": 7948,
      "Ġplants": 7949,
      "Ġrelatives": 7950,
      "Ġremo": 7951,
      "Ġdownstairs": 7952,
      "uggle": 7953,
      "play": 7954,
      "Ġcramps": 7955,
      "Ġannivers": 7956,
      "Ġnerve": 7957,
      "Ġbitterness": 7958,
      "Ġdescribing": 7959,
      "Ġlabel": 7960,
      "Ġbrighter": 7961,
      "Ġvague": 7962,
      "Ġperceived": 7963,
      "Ġwithdraw": 7964,
      "Ġcoworkers": 7965,
      "Ġinjustice": 7966,
      "ndrome": 7967,
      "Ġcub": 7968,
      "Ġporn": 7969,
      "Ġital": 7970,
      "Ġmanaging": 7971,
      "umblr": 7972,
      "Ġsyndrome": 7973,
      "Ġdrives": 7974,
      "Ġnumerous": 7975,
      "Ġcostume": 7976,
      "Ġconsumer": 7977,
      "Ġscheme": 7978,
      "la": 7979,
      "Ġaka": 7980,
      "Ġwhining": 7981,
      "imm": 7982,
      "iley": 7983,
      "west": 7984,
      "Ġjosh": 7985,
      "pled": 7986,
      "Ġvisits": 7987,
      "Ġpublicly": 7988,
      "Ġbalanced": 7989,
      "Ġinvestig": 7990,
      "Ġemployee": 7991,
      "Ġkeyboard": 7992,
      "Ġcherished": 7993,
      "Ġbruised": 7994,
      "Ġstroke": 7995,
      "Ġinevitably": 7996,
      "Ġwoo": 7997,
      "Ġinapp": 7998,
      "alth": 7999
    },
    "merges": [
      [
        "Ġ",
        "i"
      ],
      [
        "Ġ",
        "t"
      ],
      [
        "Ġ",
        "a"
      ],
      [
        "Ġ",
        "f"
      ],
      [
        "e",
        "l"
      ],
      [
        "i",
        "n"
      ],
      [
        "Ġt",
        "h"
      ],
      [
        "Ġ",
        "s"
      ],
      [
        "Ġ",
        "w"
      ],
      [
        "Ġf",
        "e"
      ],
      [
        "in",
        "g"
      ],
      [
        "Ġfe",
        "el"
      ],
      [
        "č",
        "Ċ"
      ],
      [
        "Ġ",
        "m"
      ],
      [
        "r",
        "e"
      ],
      [
        "Ġ",
        "b"
      ],
      [
        "Ġ",
        "o"
      ],
      [
        "n",
        "d"
      ],
      [
        "Ġ",
        "h"
      ],
      [
        "e",
        "r"
      ],
      [
        "a",
        "t"
      ],
      [
        "Ġth",
        "e"
      ],
      [
        "Ġt",
        "o"
      ],
      [
        "e",
        "d"
      ],
      [
        "o",
        "u"
      ],
      [
        "Ġ",
        "l"
      ],
      [
        "Ġa",
        "nd"
      ],
      [
        "Ġ",
        "c"
      ],
      [
        "e",
        "n"
      ],
      [
        "Ġ",
        "d"
      ],
      [
        "o",
        "n"
      ],
      [
        "Ġ",
        "p"
      ],
      [
        "i",
        "t"
      ],
      [
        "o",
        "r"
      ],
      [
        "a",
        "n"
      ],
      [
        "s",
        "t"
      ],
      [
        "l",
        "l"
      ],
      [
        "Ġ",
        "n"
      ],
      [
        "Ġb",
        "e"
      ],
      [
        "Ġ",
        "g"
      ],
      [
        "e",
        "s"
      ],
      [
        "o",
        "m"
      ],
      [
        "Ġo",
        "f"
      ],
      [
        "v",
        "e"
      ],
      [
        "Ġfeel",
        "ing"
      ],
      [
        "Ġi",
        "n"
      ],
      [
        "a",
        "r"
      ],
      [
        "Ġm",
        "y"
      ],
      [
        "Ġth",
        "at"
      ],
      [
        "i",
        "s"
      ],
      [
        "l",
        "e"
      ],
      [
        "Ġh",
        "a"
      ],
      [
        "k",
        "e"
      ],
      [
        "Ġ",
        "e"
      ],
      [
        "Ġw",
        "h"
      ],
      [
        "u",
        "t"
      ],
      [
        "o",
        "t"
      ],
      [
        "a",
        "s"
      ],
      [
        "Ġl",
        "i"
      ],
      [
        "o",
        "w"
      ],
      [
        "Ġi",
        "t"
      ],
      [
        "Ġ",
        "re"
      ],
      [
        "a",
        "y"
      ],
      [
        "e",
        "t"
      ],
      [
        "i",
        "c"
      ],
      [
        "Ġ",
        "u"
      ],
      [
        "v",
        "er"
      ],
      [
        "Ġs",
        "t"
      ],
      [
        "s",
        "e"
      ],
      [
        "a",
        "l"
      ],
      [
        "g",
        "h"
      ],
      [
        "Ġs",
        "o"
      ],
      [
        "Ġi",
        "m"
      ],
      [
        "Ġ",
        "y"
      ],
      [
        "Ġli",
        "ke"
      ],
      [
        "Ġo",
        "n"
      ],
      [
        "l",
        "y"
      ],
      [
        "Ġf",
        "or"
      ],
      [
        "Ġm",
        "e"
      ],
      [
        "en",
        "t"
      ],
      [
        "l",
        "d"
      ],
      [
        "i",
        "d"
      ],
      [
        "a",
        "ll"
      ],
      [
        "Ġa",
        "m"
      ],
      [
        "it",
        "h"
      ],
      [
        "i",
        "m"
      ],
      [
        "Ġi",
        "s"
      ],
      [
        "a",
        "c"
      ],
      [
        "Ġw",
        "as"
      ],
      [
        "Ġha",
        "ve"
      ],
      [
        "Ġ",
        "r"
      ],
      [
        "a",
        "d"
      ],
      [
        "Ġw",
        "ith"
      ],
      [
        "Ġb",
        "ut"
      ],
      [
        "Ġ",
        "j"
      ],
      [
        "i",
        "on"
      ],
      [
        "Ġa",
        "b"
      ],
      [
        "an",
        "t"
      ],
      [
        "ou",
        "t"
      ],
      [
        "Ġth",
        "is"
      ],
      [
        "Ġn",
        "ot"
      ],
      [
        "Ġy",
        "ou"
      ],
      [
        "Ġa",
        "n"
      ],
      [
        "u",
        "st"
      ],
      [
        "all",
        "y"
      ],
      [
        "Ġa",
        "s"
      ],
      [
        "u",
        "l"
      ],
      [
        "c",
        "h"
      ],
      [
        "Ġs",
        "h"
      ],
      [
        "o",
        "o"
      ],
      [
        "es",
        "s"
      ],
      [
        "r",
        "i"
      ],
      [
        "Ġ",
        "k"
      ],
      [
        "gh",
        "t"
      ],
      [
        "Ġm",
        "o"
      ],
      [
        "Ġab",
        "out"
      ],
      [
        "Ġs",
        "om"
      ],
      [
        "Ġd",
        "o"
      ],
      [
        "Ġs",
        "u"
      ],
      [
        "ou",
        "ld"
      ],
      [
        "Ġh",
        "e"
      ],
      [
        "i",
        "ll"
      ],
      [
        "t",
        "h"
      ],
      [
        "Ġw",
        "e"
      ],
      [
        "p",
        "p"
      ],
      [
        "Ġa",
        "t"
      ],
      [
        "i",
        "r"
      ],
      [
        "ver",
        "y"
      ],
      [
        "c",
        "t"
      ],
      [
        "a",
        "u"
      ],
      [
        "a",
        "m"
      ],
      [
        "Ġn",
        "e"
      ],
      [
        "u",
        "r"
      ],
      [
        "o",
        "p"
      ],
      [
        "Ġj",
        "ust"
      ],
      [
        "Ġwh",
        "en"
      ],
      [
        "Ġa",
        "l"
      ],
      [
        "ou",
        "s"
      ],
      [
        "c",
        "e"
      ],
      [
        "Ġo",
        "r"
      ],
      [
        "ar",
        "t"
      ],
      [
        "Ġbe",
        "c"
      ],
      [
        "n",
        "t"
      ],
      [
        "Ġa",
        "ll"
      ],
      [
        "a",
        "in"
      ],
      [
        "re",
        "d"
      ],
      [
        "Ġl",
        "o"
      ],
      [
        "au",
        "se"
      ],
      [
        "f",
        "e"
      ],
      [
        "f",
        "ul"
      ],
      [
        "Ġg",
        "o"
      ],
      [
        "i",
        "ght"
      ],
      [
        "Ġw",
        "or"
      ],
      [
        "Ġk",
        "n"
      ],
      [
        "Ġc",
        "om"
      ],
      [
        "Ġmo",
        "re"
      ],
      [
        "Ġbec",
        "ause"
      ],
      [
        "r",
        "o"
      ],
      [
        "on",
        "e"
      ],
      [
        "at",
        "e"
      ],
      [
        "a",
        "b"
      ],
      [
        "Ġc",
        "h"
      ],
      [
        "Ġc",
        "an"
      ],
      [
        "t",
        "er"
      ],
      [
        "Ġu",
        "p"
      ],
      [
        "Ġc",
        "on"
      ],
      [
        "el",
        "f"
      ],
      [
        "Ġe",
        "x"
      ],
      [
        "Ġd",
        "e"
      ],
      [
        "Ġs",
        "e"
      ],
      [
        "re",
        "s"
      ],
      [
        "Ġkn",
        "ow"
      ],
      [
        "Ġo",
        "ut"
      ],
      [
        "Ġg",
        "et"
      ],
      [
        "Ġm",
        "a"
      ],
      [
        "Ġsom",
        "e"
      ],
      [
        "Ġt",
        "im"
      ],
      [
        "Ġf",
        "r"
      ],
      [
        "k",
        "ing"
      ],
      [
        "s",
        "ed"
      ],
      [
        "Ġt",
        "r"
      ],
      [
        "Ġre",
        "ally"
      ],
      [
        "er",
        "s"
      ],
      [
        "Ġa",
        "re"
      ],
      [
        "at",
        "ed"
      ],
      [
        "or",
        "t"
      ],
      [
        "it",
        "t"
      ],
      [
        "Ġu",
        "n"
      ],
      [
        "el",
        "y"
      ],
      [
        "Ġ",
        "v"
      ],
      [
        "i",
        "l"
      ],
      [
        "i",
        "ve"
      ],
      [
        "g",
        "e"
      ],
      [
        "Ġb",
        "y"
      ],
      [
        "Ġd",
        "on"
      ],
      [
        "el",
        "l"
      ],
      [
        "in",
        "d"
      ],
      [
        "s",
        "elf"
      ],
      [
        "Ġ",
        "very"
      ],
      [
        "Ġbe",
        "en"
      ],
      [
        "Ġwh",
        "at"
      ],
      [
        "Ġw",
        "ant"
      ],
      [
        "ou",
        "gh"
      ],
      [
        "Ġp",
        "e"
      ],
      [
        "Ġi",
        "f"
      ],
      [
        "Ġmy",
        "self"
      ],
      [
        "Ġtim",
        "e"
      ],
      [
        "a",
        "st"
      ],
      [
        "Ġl",
        "e"
      ],
      [
        "u",
        "n"
      ],
      [
        "Ġh",
        "ow"
      ],
      [
        "p",
        "e"
      ],
      [
        "h",
        "ing"
      ],
      [
        "on",
        "g"
      ],
      [
        "r",
        "a"
      ],
      [
        "Ġan",
        "y"
      ],
      [
        "q",
        "u"
      ],
      [
        "Ġw",
        "ould"
      ],
      [
        "Ġth",
        "in"
      ],
      [
        "v",
        "en"
      ],
      [
        "Ġw",
        "ill"
      ],
      [
        "ay",
        "s"
      ],
      [
        "Ġha",
        "d"
      ],
      [
        "Ġthe",
        "y"
      ],
      [
        "at",
        "ion"
      ],
      [
        "Ġn",
        "ow"
      ],
      [
        "Ġd",
        "id"
      ],
      [
        "itt",
        "le"
      ],
      [
        "Ġ",
        "en"
      ],
      [
        "u",
        "m"
      ],
      [
        "Ġl",
        "ittle"
      ],
      [
        "u",
        "s"
      ],
      [
        "Ġsom",
        "et"
      ],
      [
        "Ġwh",
        "o"
      ],
      [
        "Ġfr",
        "om"
      ],
      [
        "h",
        "er"
      ],
      [
        "Ġpe",
        "op"
      ],
      [
        "ar",
        "d"
      ],
      [
        "Ġbe",
        "ing"
      ],
      [
        "Ġp",
        "o"
      ],
      [
        "Ġpeop",
        "le"
      ],
      [
        "t",
        "y"
      ],
      [
        "Ġth",
        "ing"
      ],
      [
        "l",
        "o"
      ],
      [
        "e",
        "nd"
      ],
      [
        "oo",
        "d"
      ],
      [
        "v",
        "ing"
      ],
      [
        "Ġd",
        "is"
      ],
      [
        "ab",
        "le"
      ],
      [
        "ac",
        "k"
      ],
      [
        "Ġe",
        "very"
      ],
      [
        "Ġb",
        "it"
      ],
      [
        "Ġh",
        "er"
      ],
      [
        "Ġin",
        "t"
      ],
      [
        "Ġthe",
        "m"
      ],
      [
        "i",
        "st"
      ],
      [
        "e",
        "m"
      ],
      [
        "Ġthin",
        "k"
      ],
      [
        "u",
        "ch"
      ],
      [
        "Ġon",
        "e"
      ],
      [
        "Ġa",
        "g"
      ],
      [
        "Ġp",
        "re"
      ],
      [
        "ou",
        "nd"
      ],
      [
        "Ġst",
        "ill"
      ],
      [
        "p",
        "t"
      ],
      [
        "Ġth",
        "an"
      ],
      [
        "c",
        "i"
      ],
      [
        "Ġe",
        "ven"
      ],
      [
        "Ġo",
        "ver"
      ],
      [
        "Ġn",
        "o"
      ],
      [
        "i",
        "e"
      ],
      [
        "e",
        "p"
      ],
      [
        "v",
        "ed"
      ],
      [
        "it",
        "e"
      ],
      [
        "r",
        "y"
      ],
      [
        "Ġi",
        "ve"
      ],
      [
        "Ġp",
        "ro"
      ],
      [
        "o",
        "l"
      ],
      [
        "Ġm",
        "uch"
      ],
      [
        "oo",
        "k"
      ],
      [
        "Ġthe",
        "re"
      ],
      [
        "Ġa",
        "r"
      ],
      [
        "Ġc",
        "ould"
      ],
      [
        "i",
        "g"
      ],
      [
        "Ġne",
        "ed"
      ],
      [
        "Ġh",
        "im"
      ],
      [
        "l",
        "ess"
      ],
      [
        "Ġli",
        "fe"
      ],
      [
        "Ġa",
        "f"
      ],
      [
        "ac",
        "e"
      ],
      [
        "Ġit",
        "s"
      ],
      [
        "Ġp",
        "l"
      ],
      [
        "Ġto",
        "o"
      ],
      [
        "a",
        "re"
      ],
      [
        "c",
        "k"
      ],
      [
        "is",
        "h"
      ],
      [
        "u",
        "re"
      ],
      [
        "Ġsomet",
        "hing"
      ],
      [
        "o",
        "y"
      ],
      [
        "Ġma",
        "ke"
      ],
      [
        "Ġh",
        "el"
      ],
      [
        "Ġo",
        "th"
      ],
      [
        "Ġlo",
        "ve"
      ],
      [
        "a",
        "nd"
      ],
      [
        "Ġw",
        "ay"
      ],
      [
        "Ġthing",
        "s"
      ],
      [
        "a",
        "g"
      ],
      [
        "Ġ",
        "qu"
      ],
      [
        "d",
        "ay"
      ],
      [
        "i",
        "ous"
      ],
      [
        "Ġst",
        "art"
      ],
      [
        "Ġdon",
        "t"
      ],
      [
        "Ġhel",
        "p"
      ],
      [
        "as",
        "s"
      ],
      [
        "Ġf",
        "ri"
      ],
      [
        "Ġgo",
        "ing"
      ],
      [
        "om",
        "e"
      ],
      [
        "it",
        "y"
      ],
      [
        "i",
        "le"
      ],
      [
        "Ġe",
        "m"
      ],
      [
        "Ġg",
        "r"
      ],
      [
        "Ġd",
        "ay"
      ],
      [
        "Ġha",
        "pp"
      ],
      [
        "Ġa",
        "w"
      ],
      [
        "Ġw",
        "r"
      ],
      [
        "o",
        "re"
      ],
      [
        "ic",
        "h"
      ],
      [
        "in",
        "e"
      ],
      [
        "am",
        "e"
      ],
      [
        "e",
        "ar"
      ],
      [
        "a",
        "k"
      ],
      [
        "Ġcom",
        "p"
      ],
      [
        "e",
        "re"
      ],
      [
        "Ġse",
        "e"
      ],
      [
        "th",
        "ing"
      ],
      [
        "Ġr",
        "el"
      ],
      [
        "Ġb",
        "ack"
      ],
      [
        "Ġs",
        "ay"
      ],
      [
        "Ġsh",
        "e"
      ],
      [
        "nd",
        "er"
      ],
      [
        "ac",
        "t"
      ],
      [
        "a",
        "ke"
      ],
      [
        "Ġwor",
        "k"
      ],
      [
        "p",
        "er"
      ],
      [
        "Ġm",
        "an"
      ],
      [
        "Ġha",
        "s"
      ],
      [
        "Ġfri",
        "end"
      ],
      [
        "id",
        "e"
      ],
      [
        "Ġa",
        "d"
      ],
      [
        "Ġg",
        "u"
      ],
      [
        "Ġs",
        "a"
      ],
      [
        "Ġst",
        "r"
      ],
      [
        "Ġg",
        "ood"
      ],
      [
        "Ġs",
        "p"
      ],
      [
        "re",
        "at"
      ],
      [
        "Ġre",
        "s"
      ],
      [
        "u",
        "d"
      ],
      [
        "Ġu",
        "s"
      ],
      [
        "t",
        "ing"
      ],
      [
        "o",
        "se"
      ],
      [
        "Ġc",
        "o"
      ],
      [
        "Ġpre",
        "t"
      ],
      [
        "Ġa",
        "c"
      ],
      [
        "Ġp",
        "art"
      ],
      [
        "n",
        "ing"
      ],
      [
        "Ġp",
        "r"
      ],
      [
        "Ġyou",
        "r"
      ],
      [
        "Ġh",
        "is"
      ],
      [
        "w",
        "ays"
      ],
      [
        "Ġsh",
        "ould"
      ],
      [
        "ic",
        "k"
      ],
      [
        "ad",
        "e"
      ],
      [
        "ou",
        "r"
      ],
      [
        "Ġr",
        "ight"
      ],
      [
        "Ġint",
        "o"
      ],
      [
        "Ġwh",
        "ich"
      ],
      [
        "Ġag",
        "ain"
      ],
      [
        "s",
        "o"
      ],
      [
        "Ġal",
        "ways"
      ],
      [
        "res",
        "sed"
      ],
      [
        "Ġaf",
        "ter"
      ],
      [
        "ow",
        "n"
      ],
      [
        "Ġthe",
        "ir"
      ],
      [
        "Ġpret",
        "ty"
      ],
      [
        "Ġa",
        "ct"
      ],
      [
        "i",
        "es"
      ],
      [
        "Ġcon",
        "t"
      ],
      [
        "b",
        "le"
      ],
      [
        "Ġoth",
        "er"
      ],
      [
        "m",
        "ent"
      ],
      [
        "Ġre",
        "m"
      ],
      [
        "f",
        "t"
      ],
      [
        "w",
        "h"
      ],
      [
        "Ġd",
        "i"
      ],
      [
        "res",
        "s"
      ],
      [
        "Ġtr",
        "y"
      ],
      [
        "Ġon",
        "ly"
      ],
      [
        "Ġh",
        "op"
      ],
      [
        "Ġmo",
        "st"
      ],
      [
        "f",
        "f"
      ],
      [
        "Ġre",
        "ad"
      ],
      [
        "Ġy",
        "ear"
      ],
      [
        "u",
        "ally"
      ],
      [
        "Ġfeel",
        "s"
      ],
      [
        "Ġthe",
        "se"
      ],
      [
        "Ġal",
        "so"
      ],
      [
        "Ġp",
        "ers"
      ],
      [
        "Ġfeeling",
        "s"
      ],
      [
        "Ġl",
        "ong"
      ],
      [
        "Ġthe",
        "n"
      ],
      [
        "Ġof",
        "f"
      ],
      [
        "i",
        "z"
      ],
      [
        "Ġi",
        "d"
      ],
      [
        "ac",
        "h"
      ],
      [
        "Ġto",
        "day"
      ],
      [
        "Ġwe",
        "e"
      ],
      [
        "Ġth",
        "r"
      ],
      [
        "Ġs",
        "m"
      ],
      [
        "Ġim",
        "p"
      ],
      [
        "ou",
        "ght"
      ],
      [
        "Ġc",
        "l"
      ],
      [
        "Ġbe",
        "t"
      ],
      [
        "Ġo",
        "ur"
      ],
      [
        "Ġc",
        "ant"
      ],
      [
        "Ġg",
        "ot"
      ],
      [
        "a",
        "z"
      ],
      [
        "Ġne",
        "ver"
      ],
      [
        "b",
        "er"
      ],
      [
        "oo",
        "l"
      ],
      [
        "Ġpers",
        "on"
      ],
      [
        "Ġwe",
        "re"
      ],
      [
        "e",
        "ct"
      ],
      [
        "ic",
        "e"
      ],
      [
        "w",
        "ard"
      ],
      [
        "Ġl",
        "ook"
      ],
      [
        "u",
        "ll"
      ],
      [
        "Ġin",
        "s"
      ],
      [
        "w",
        "e"
      ],
      [
        "Ġk",
        "ind"
      ],
      [
        "in",
        "t"
      ],
      [
        "h",
        "a"
      ],
      [
        "Ġa",
        "pp"
      ],
      [
        "Ġsu",
        "pp"
      ],
      [
        "Ġhe",
        "re"
      ],
      [
        "i",
        "ly"
      ],
      [
        "Ġ",
        "ke"
      ],
      [
        "an",
        "g"
      ],
      [
        "Ġar",
        "ound"
      ],
      [
        "Ġw",
        "o"
      ],
      [
        "en",
        "ed"
      ],
      [
        "i",
        "p"
      ],
      [
        "Ġm",
        "is"
      ],
      [
        "e",
        "st"
      ],
      [
        "Ġs",
        "pe"
      ],
      [
        "at",
        "h"
      ],
      [
        "Ġth",
        "ough"
      ],
      [
        "o",
        "d"
      ],
      [
        "Ġd",
        "own"
      ],
      [
        "Ġs",
        "c"
      ],
      [
        "Ġdid",
        "nt"
      ],
      [
        "Ġw",
        "ell"
      ],
      [
        "Ġm",
        "ay"
      ],
      [
        "lo",
        "g"
      ],
      [
        "ce",
        "pt"
      ],
      [
        "Ġm",
        "om"
      ],
      [
        "Ġt",
        "al"
      ],
      [
        "Ġth",
        "ose"
      ],
      [
        "re",
        "e"
      ],
      [
        "u",
        "red"
      ],
      [
        "Ġre",
        "al"
      ],
      [
        "Ġp",
        "er"
      ],
      [
        "Ġb",
        "l"
      ],
      [
        "Ġb",
        "el"
      ],
      [
        "Ġthr",
        "ough"
      ],
      [
        "ion",
        "s"
      ],
      [
        "Ġm",
        "ade"
      ],
      [
        "Ġne",
        "w"
      ],
      [
        "Ġl",
        "ot"
      ],
      [
        "Ġth",
        "ought"
      ],
      [
        "en",
        "ce"
      ],
      [
        "Ġwh",
        "ere"
      ],
      [
        "Ġf",
        "ind"
      ],
      [
        "ot",
        "her"
      ],
      [
        "Ġl",
        "et"
      ],
      [
        "u",
        "e"
      ],
      [
        "at",
        "her"
      ],
      [
        "k",
        "es"
      ],
      [
        "Ġdo",
        "ing"
      ],
      [
        "Ġst",
        "u"
      ],
      [
        "Ġl",
        "ess"
      ],
      [
        "Ġwee",
        "k"
      ],
      [
        "f",
        "ort"
      ],
      [
        "Ġd",
        "es"
      ],
      [
        "w",
        "n"
      ],
      [
        "t",
        "t"
      ],
      [
        "Ġsome",
        "one"
      ],
      [
        "Ġs",
        "in"
      ],
      [
        "ul",
        "t"
      ],
      [
        "Ġhe",
        "art"
      ],
      [
        "Ġf",
        "a"
      ],
      [
        "Ġ",
        "@"
      ],
      [
        "i",
        "ed"
      ],
      [
        "Ġhapp",
        "y"
      ],
      [
        "Ġe",
        "nd"
      ],
      [
        "Ġha",
        "ving"
      ],
      [
        "n",
        "ess"
      ],
      [
        "Ġcon",
        "f"
      ],
      [
        "Ġh",
        "ome"
      ],
      [
        "Ġs",
        "l"
      ],
      [
        "c",
        "om"
      ],
      [
        "el",
        "t"
      ],
      [
        "Ġb",
        "r"
      ],
      [
        "Ġqu",
        "ite"
      ],
      [
        "a",
        "ge"
      ],
      [
        "f",
        "ore"
      ],
      [
        "Ġman",
        "y"
      ],
      [
        "Ġwh",
        "y"
      ],
      [
        "Ġ",
        "I"
      ],
      [
        "Ġt",
        "e"
      ],
      [
        "Ġfriend",
        "s"
      ],
      [
        "ot",
        "h"
      ],
      [
        "v",
        "es"
      ],
      [
        "tt",
        "p"
      ],
      [
        "Ġh",
        "ttp"
      ],
      [
        "Ġma",
        "kes"
      ],
      [
        "Ġf",
        "elt"
      ],
      [
        "i",
        "ld"
      ],
      [
        "Ġt",
        "er"
      ],
      [
        "pe",
        "ct"
      ],
      [
        ".",
        "."
      ],
      [
        "Ġl",
        "ast"
      ],
      [
        "t",
        "en"
      ],
      [
        "Ġsu",
        "re"
      ],
      [
        "Ġany",
        "thing"
      ],
      [
        "Ġd",
        "ays"
      ],
      [
        "v",
        "ent"
      ],
      [
        "an",
        "ge"
      ],
      [
        "k",
        "ed"
      ],
      [
        "en",
        "s"
      ],
      [
        "Ġu",
        "nder"
      ],
      [
        "Ġt",
        "w"
      ],
      [
        "Ġhop",
        "e"
      ],
      [
        "Ġbe",
        "fore"
      ],
      [
        "i",
        "red"
      ],
      [
        "Ġd",
        "ist"
      ],
      [
        "g",
        "et"
      ],
      [
        "Ġr",
[...]
